unsigned char model_tflite[] = {
0x1c, 0x00, 0x00, 0x00, 0x54, 0x46, 0x4c, 0x33, 0x14, 0x00, 0x20, 0x00, 
0x1c, 0x00, 0x18, 0x00, 0x14, 0x00, 0x10, 0x00, 0x0c, 0x00, 0x00, 0x00, 
0x08, 0x00, 0x04, 0x00, 0x14, 0x00, 0x00, 0x00, 0x1c, 0x00, 0x00, 0x00, 
0x8c, 0x00, 0x00, 0x00, 0xdc, 0x00, 0x00, 0x00, 0x68, 0x0c, 0x00, 0x00, 
0x78, 0x0c, 0x00, 0x00, 0x2c, 0x2f, 0x00, 0x00, 0x03, 0x00, 0x00, 0x00, 
0x01, 0x00, 0x00, 0x00, 0x04, 0x00, 0x00, 0x00, 0xa2, 0xdc, 0xff, 0xff, 
0x0c, 0x00, 0x00, 0x00, 0x1c, 0x00, 0x00, 0x00, 0x3c, 0x00, 0x00, 0x00, 
0x0f, 0x00, 0x00, 0x00, 0x73, 0x65, 0x72, 0x76, 0x69, 0x6e, 0x67, 0x5f, 
0x64, 0x65, 0x66, 0x61, 0x75, 0x6c, 0x74, 0x00, 0x01, 0x00, 0x00, 0x00, 
0x04, 0x00, 0x00, 0x00, 0x7c, 0xdd, 0xff, 0xff, 0x1e, 0x00, 0x00, 0x00, 
0x04, 0x00, 0x00, 0x00, 0x08, 0x00, 0x00, 0x00, 0x6f, 0x75, 0x74, 0x70, 
0x75, 0x74, 0x5f, 0x30, 0x00, 0x00, 0x00, 0x00, 0x01, 0x00, 0x00, 0x00, 
0x04, 0x00, 0x00, 0x00, 0x16, 0xdd, 0xff, 0xff, 0x04, 0x00, 0x00, 0x00, 
0x0c, 0x00, 0x00, 0x00, 0x6b, 0x65, 0x72, 0x61, 0x73, 0x5f, 0x74, 0x65, 
0x6e, 0x73, 0x6f, 0x72, 0x00, 0x00, 0x00, 0x00, 0x02, 0x00, 0x00, 0x00, 
0x2c, 0x00, 0x00, 0x00, 0x04, 0x00, 0x00, 0x00, 0xc8, 0xdd, 0xff, 0xff, 
0x4b, 0x00, 0x00, 0x00, 0x04, 0x00, 0x00, 0x00, 0x13, 0x00, 0x00, 0x00, 
0x43, 0x4f, 0x4e, 0x56, 0x45, 0x52, 0x53, 0x49, 0x4f, 0x4e, 0x5f, 0x4d, 
0x45, 0x54, 0x41, 0x44, 0x41, 0x54, 0x41, 0x00, 0xec, 0xdd, 0xff, 0xff, 
0x4a, 0x00, 0x00, 0x00, 0x04, 0x00, 0x00, 0x00, 0x13, 0x00, 0x00, 0x00, 
0x6d, 0x69, 0x6e, 0x5f, 0x72, 0x75, 0x6e, 0x74, 0x69, 0x6d, 0x65, 0x5f, 
0x76, 0x65, 0x72, 0x73, 0x69, 0x6f, 0x6e, 0x00, 0x4c, 0x00, 0x00, 0x00, 
0x88, 0x0b, 0x00, 0x00, 0x80, 0x0b, 0x00, 0x00, 0x64, 0x0b, 0x00, 0x00, 
0x48, 0x0b, 0x00, 0x00, 0x2c, 0x0b, 0x00, 0x00, 0xbc, 0x0a, 0x00, 0x00, 
0xa0, 0x0a, 0x00, 0x00, 0x8c, 0x0a, 0x00, 0x00, 0x78, 0x0a, 0x00, 0x00, 
0x64, 0x0a, 0x00, 0x00, 0x48, 0x0a, 0x00, 0x00, 0x34, 0x0a, 0x00, 0x00, 
0x2c, 0x0a, 0x00, 0x00, 0x24, 0x0a, 0x00, 0x00, 0x0c, 0x0a, 0x00, 0x00, 
0x04, 0x0a, 0x00, 0x00, 0xfc, 0x09, 0x00, 0x00, 0xf4, 0x09, 0x00, 0x00, 
0xec, 0x09, 0x00, 0x00, 0xe4, 0x09, 0x00, 0x00, 0xdc, 0x09, 0x00, 0x00, 
0xd4, 0x09, 0x00, 0x00, 0xcc, 0x09, 0x00, 0x00, 0xc4, 0x09, 0x00, 0x00, 
0xbc, 0x09, 0x00, 0x00, 0xb4, 0x09, 0x00, 0x00, 0xac, 0x09, 0x00, 0x00, 
0xa4, 0x09, 0x00, 0x00, 0x9c, 0x09, 0x00, 0x00, 0x94, 0x09, 0x00, 0x00, 
0x8c, 0x09, 0x00, 0x00, 0x84, 0x09, 0x00, 0x00, 0x7c, 0x09, 0x00, 0x00, 
0x74, 0x09, 0x00, 0x00, 0x6c, 0x09, 0x00, 0x00, 0x64, 0x09, 0x00, 0x00, 
0x5c, 0x09, 0x00, 0x00, 0x54, 0x09, 0x00, 0x00, 0x4c, 0x09, 0x00, 0x00, 
0x44, 0x09, 0x00, 0x00, 0x3c, 0x09, 0x00, 0x00, 0x34, 0x09, 0x00, 0x00, 
0x2c, 0x09, 0x00, 0x00, 0x24, 0x09, 0x00, 0x00, 0x1c, 0x09, 0x00, 0x00, 
0x14, 0x09, 0x00, 0x00, 0x0c, 0x09, 0x00, 0x00, 0x04, 0x09, 0x00, 0x00, 
0xfc, 0x08, 0x00, 0x00, 0xf4, 0x08, 0x00, 0x00, 0xe4, 0x05, 0x00, 0x00, 
0xd4, 0x01, 0x00, 0x00, 0x44, 0x01, 0x00, 0x00, 0x3c, 0x01, 0x00, 0x00, 
0x34, 0x01, 0x00, 0x00, 0x2c, 0x01, 0x00, 0x00, 0x24, 0x01, 0x00, 0x00, 
0x1c, 0x01, 0x00, 0x00, 0x14, 0x01, 0x00, 0x00, 0x0c, 0x01, 0x00, 0x00, 
0x04, 0x01, 0x00, 0x00, 0xfc, 0x00, 0x00, 0x00, 0xf4, 0x00, 0x00, 0x00, 
0xec, 0x00, 0x00, 0x00, 0xe4, 0x00, 0x00, 0x00, 0xdc, 0x00, 0x00, 0x00, 
0xd4, 0x00, 0x00, 0x00, 0xcc, 0x00, 0x00, 0x00, 0xc4, 0x00, 0x00, 0x00, 
0xbc, 0x00, 0x00, 0x00, 0xb4, 0x00, 0x00, 0x00, 0xac, 0x00, 0x00, 0x00, 
0xa4, 0x00, 0x00, 0x00, 0x9c, 0x00, 0x00, 0x00, 0x7c, 0x00, 0x00, 0x00, 
0x04, 0x00, 0x00, 0x00, 0xba, 0xde, 0xff, 0xff, 0x04, 0x00, 0x00, 0x00, 
0x68, 0x00, 0x00, 0x00, 0x0c, 0x00, 0x00, 0x00, 0x08, 0x00, 0x0e, 0x00, 
0x08, 0x00, 0x04, 0x00, 0x08, 0x00, 0x00, 0x00, 0x14, 0x00, 0x00, 0x00, 
0x30, 0x00, 0x00, 0x00, 0x00, 0x00, 0x0a, 0x00, 0x0c, 0x00, 0x08, 0x00, 
0x00, 0x00, 0x07, 0x00, 0x0a, 0x00, 0x00, 0x00, 0x00, 0x00, 0x00, 0x01, 
0x04, 0x00, 0x00, 0x00, 0x01, 0x00, 0x00, 0x00, 0xea, 0x03, 0x00, 0x00, 
0x0c, 0x00, 0x18, 0x00, 0x14, 0x00, 0x10, 0x00, 0x0c, 0x00, 0x04, 0x00, 
0x0c, 0x00, 0x00, 0x00, 0xa3, 0xba, 0x65, 0xcd, 0x97, 0xa0, 0xa7, 0x15, 
0x02, 0x00, 0x00, 0x00, 0x02, 0x00, 0x00, 0x00, 0x04, 0x00, 0x00, 0x00, 
0x06, 0x00, 0x00, 0x00, 0x32, 0x2e, 0x31, 0x37, 0x2e, 0x30, 0x00, 0x00, 
0x2e, 0xdf, 0xff, 0xff, 0x04, 0x00, 0x00, 0x00, 0x10, 0x00, 0x00, 0x00, 
0x31, 0x2e, 0x31, 0x35, 0x2e, 0x30, 0x00, 0x00, 0x00, 0x00, 0x00, 0x00, 
0x00, 0x00, 0x00, 0x00, 0xb0, 0xd2, 0xff, 0xff, 0xb4, 0xd2, 0xff, 0xff, 
0xb8, 0xd2, 0xff, 0xff, 0xbc, 0xd2, 0xff, 0xff, 0xc0, 0xd2, 0xff, 0xff, 
0xc4, 0xd2, 0xff, 0xff, 0xc8, 0xd2, 0xff, 0xff, 0xcc, 0xd2, 0xff, 0xff, 
0xd0, 0xd2, 0xff, 0xff, 0xd4, 0xd2, 0xff, 0xff, 0xd8, 0xd2, 0xff, 0xff, 
0xdc, 0xd2, 0xff, 0xff, 0xe0, 0xd2, 0xff, 0xff, 0xe4, 0xd2, 0xff, 0xff, 
0xe8, 0xd2, 0xff, 0xff, 0xec, 0xd2, 0xff, 0xff, 0xf0, 0xd2, 0xff, 0xff, 
0xf4, 0xd2, 0xff, 0xff, 0xf8, 0xd2, 0xff, 0xff, 0xfc, 0xd2, 0xff, 0xff, 
0x00, 0xd3, 0xff, 0xff, 0x9e, 0xdf, 0xff, 0xff, 0x04, 0x00, 0x00, 0x00, 
0x80, 0x00, 0x00, 0x00, 0xc5, 0x72, 0x19, 0x3f, 0x86, 0xaf, 0xb2, 0xbf, 
0x28, 0x5a, 0x4b, 0x3f, 0xba, 0xef, 0x81, 0x3e, 0x45, 0xf3, 0x27, 0xbe, 
0xd4, 0xab, 0x41, 0xbe, 0x41, 0x27, 0x68, 0xbe, 0xe7, 0x74, 0x00, 0x3f, 
0xd7, 0xa8, 0x7d, 0x3f, 0x93, 0xc9, 0xbf, 0x3f, 0x4c, 0xe8, 0xeb, 0x3f, 
0xfd, 0x1d, 0xf2, 0x3f, 0x10, 0x3e, 0x5b, 0x3f, 0x32, 0xd4, 0xf6, 0x3f, 
0xff, 0x40, 0xde, 0x3f, 0xb3, 0x82, 0xd8, 0x3f, 0x78, 0x76, 0x8d, 0xbe, 
0x13, 0xab, 0x07, 0xbe, 0x7b, 0xff, 0xd3, 0x3e, 0x62, 0x7c, 0x30, 0x3f, 
0x27, 0x54, 0xda, 0x3e, 0x8a, 0xdb, 0x9e, 0x3d, 0x40, 0x5e, 0x12, 0xbe, 
0xe8, 0x59, 0x6b, 0x3f, 0x78, 0x8f, 0x37, 0x3f, 0x29, 0xe5, 0x86, 0x3f, 
0xd8, 0x70, 0x8f, 0xbb, 0x42, 0xc7, 0x69, 0x3f, 0x74, 0x8a, 0xa1, 0x3e, 
0x77, 0xc6, 0x3c, 0x3f, 0x84, 0x97, 0xf5, 0xbd, 0xda, 0xb4, 0x57, 0x3c, 
0x2a, 0xe0, 0xff, 0xff, 0x04, 0x00, 0x00, 0x00, 0x00, 0x04, 0x00, 0x00, 
0xa5, 0x2b, 0x21, 0x3e, 0x48, 0xa8, 0xed, 0xbd, 0x00, 0x91, 0x79, 0x3e, 
0x49, 0xac, 0x80, 0xbf, 0x8a, 0xdf, 0x83, 0xbf, 0xee, 0x8a, 0xa3, 0x3f, 
0x2a, 0xec, 0xe3, 0xbe, 0x44, 0xab, 0x95, 0x3f, 0x8f, 0x27, 0x0d, 0xc0, 
0xe5, 0x5a, 0xd6, 0xbf, 0x01, 0x60, 0x71, 0xbf, 0xce, 0xb1, 0x4c, 0xbf, 
0xfa, 0xce, 0xa1, 0xbf, 0xe1, 0xc0, 0xcb, 0x3f, 0xa8, 0x9b, 0x74, 0x3e, 
0x0c, 0x77, 0x80, 0xbf, 0xdf, 0xc7, 0xcb, 0xbf, 0x2e, 0xc3, 0x6e, 0x3d, 
0x61, 0xdd, 0xd7, 0xbf, 0x16, 0x5b, 0x3a, 0xbe, 0x74, 0x44, 0x8b, 0xbf, 
0xa7, 0x87, 0xe9, 0x3e, 0x39, 0xea, 0x2d, 0xbe, 0x93, 0x16, 0x60, 0xbf, 
0x2d, 0xb2, 0x39, 0x3f, 0x32, 0xd6, 0xba, 0xbe, 0xfb, 0x05, 0x28, 0xbf, 
0xfb, 0xf8, 0x3c, 0xbf, 0x62, 0x3b, 0xcc, 0xbd, 0xd9, 0xe1, 0x79, 0x3f, 
0xde, 0xa4, 0x37, 0x3d, 0xb7, 0xed, 0xfd, 0xbe, 0x6d, 0xf1, 0x02, 0x3f, 
0x02, 0x8a, 0xf5, 0x3e, 0xaa, 0xf1, 0x52, 0x3e, 0xb6, 0xfd, 0x48, 0xbf, 
0xeb, 0x7f, 0x72, 0xbe, 0x0a, 0xd2, 0x68, 0xbf, 0x33, 0xba, 0x0a, 0xc0, 
0x13, 0x9e, 0xbe, 0x3f, 0xa7, 0x29, 0x2c, 0xbf, 0x44, 0xe8, 0x23, 0x3f, 
0x07, 0xca, 0x7c, 0xbf, 0x0f, 0x75, 0xab, 0xbf, 0xbd, 0x8d, 0x86, 0xbf, 
0x95, 0x5a, 0xe2, 0x3f, 0x11, 0x9b, 0x49, 0xbf, 0x27, 0x9c, 0xa7, 0xbe, 
0xfc, 0xce, 0xa2, 0xbd, 0xef, 0xa5, 0x92, 0xbc, 0x74, 0x1f, 0x4b, 0xbf, 
0x5c, 0x60, 0x06, 0xbe, 0x09, 0xbe, 0x02, 0xbf, 0xe0, 0x8f, 0x55, 0x3f, 
0x65, 0x1d, 0x73, 0xbf, 0xa6, 0xe7, 0x28, 0xbf, 0xaa, 0x3a, 0x84, 0x3f, 
0xac, 0x50, 0xae, 0x3e, 0x1d, 0xa7, 0xdf, 0xbe, 0xd7, 0x5f, 0xf0, 0xbe, 
0x4f, 0xdf, 0xb2, 0xbe, 0xdf, 0xd4, 0xe8, 0x3f, 0x6c, 0xa7, 0x94, 0xbd, 
0x51, 0x74, 0xf6, 0xbd, 0xfa, 0xdb, 0x5c, 0x3f, 0x76, 0x3f, 0xc0, 0x3e, 
0xdf, 0x96, 0x88, 0x3e, 0x71, 0x5d, 0xfa, 0xbe, 0x71, 0x14, 0xd2, 0xbf, 
0xb7, 0xf3, 0xe7, 0x3e, 0x1e, 0x27, 0x0c, 0x3f, 0x85, 0x98, 0x89, 0x3d, 
0x2b, 0xda, 0x44, 0x3f, 0xc8, 0x4c, 0x08, 0x3f, 0xfb, 0x4e, 0x1a, 0x3f, 
0x96, 0xfd, 0xe0, 0xbe, 0x89, 0x84, 0xdd, 0xbf, 0x3c, 0xa1, 0x36, 0x3e, 
0x48, 0x66, 0x15, 0x3e, 0x7d, 0x32, 0x44, 0x3f, 0x82, 0x33, 0xa1, 0x3d, 
0x86, 0xd7, 0x73, 0x3d, 0xfe, 0x90, 0x11, 0x3d, 0x01, 0x76, 0xff, 0x3e, 
0xc2, 0xce, 0x85, 0xbe, 0x2b, 0x13, 0x44, 0xbf, 0x0e, 0xa4, 0xdd, 0xbd, 
0x25, 0xe8, 0x02, 0x3f, 0xa7, 0x87, 0x19, 0x3e, 0x7d, 0xf7, 0x3a, 0xbf, 
0xbd, 0x96, 0x31, 0x3f, 0xb5, 0x37, 0x13, 0x3e, 0x0c, 0xc3, 0x19, 0x3e, 
0x7d, 0xf2, 0xaf, 0x3e, 0x92, 0xb4, 0x45, 0xbf, 0xf8, 0x45, 0x1f, 0xbf, 
0x4c, 0x52, 0xa5, 0x3f, 0x64, 0x10, 0xb1, 0x3f, 0x7d, 0x5d, 0xa5, 0xbb, 
0xe8, 0x72, 0xe9, 0x3e, 0x30, 0xe4, 0xbf, 0x3f, 0x89, 0xcc, 0x3b, 0x3d, 
0xc7, 0xa3, 0x87, 0x3f, 0x6c, 0x0b, 0x20, 0xbf, 0x83, 0xa9, 0x96, 0x3f, 
0xdf, 0xa8, 0xf4, 0x3e, 0x44, 0x28, 0xb8, 0x3d, 0x8d, 0xce, 0xcd, 0xbe, 
0x60, 0x2c, 0x41, 0x3f, 0xe1, 0x7a, 0xc2, 0x3d, 0x02, 0x86, 0x39, 0xbc, 
0xab, 0xd0, 0xb1, 0x3c, 0xe9, 0xaa, 0x06, 0x3f, 0x70, 0xc1, 0x65, 0x3f, 
0xd6, 0x8c, 0x02, 0xbf, 0xc1, 0x12, 0x14, 0xbf, 0xf4, 0xae, 0x6c, 0xbf, 
0x64, 0x71, 0x0c, 0xbe, 0x28, 0x5a, 0x39, 0xbe, 0x7a, 0xdb, 0x33, 0xbf, 
0xdb, 0x09, 0x1e, 0x3f, 0x46, 0xdc, 0x14, 0x3f, 0xe4, 0x29, 0xde, 0xbd, 
0x60, 0xe9, 0x22, 0xbf, 0xf3, 0x5a, 0xa4, 0xbd, 0x12, 0x71, 0xfc, 0xbe, 
0xe3, 0xbb, 0xb0, 0x3d, 0x2f, 0x01, 0xd2, 0x3e, 0x0e, 0xcb, 0x88, 0x3e, 
0x79, 0xd6, 0x4f, 0x3f, 0x4a, 0x52, 0x51, 0xbf, 0x8b, 0x63, 0xac, 0xbe, 
0x15, 0x43, 0x8f, 0xbe, 0x30, 0x5b, 0x00, 0xbf, 0x65, 0x3c, 0x17, 0x3f, 
0x99, 0x71, 0xde, 0xbe, 0x77, 0x03, 0x36, 0xbf, 0x2d, 0xfa, 0xbb, 0xbe, 
0x0a, 0x4c, 0x63, 0x3f, 0xf9, 0xd1, 0x84, 0xbd, 0xe5, 0x88, 0x9c, 0xbf, 
0x87, 0x5a, 0x0b, 0x3d, 0x0c, 0x31, 0x8d, 0xbe, 0x10, 0xaf, 0x93, 0x3e, 
0x51, 0x85, 0x1a, 0x3f, 0x66, 0xb3, 0x2b, 0xbf, 0xd0, 0x83, 0x1b, 0xbf, 
0x98, 0xfd, 0x7a, 0x3e, 0xee, 0xeb, 0x0b, 0x3f, 0xc2, 0xb1, 0xb8, 0x3e, 
0xcf, 0x6b, 0x4e, 0xbf, 0xa3, 0xd4, 0xc7, 0x3d, 0x17, 0x1b, 0x23, 0xbf, 
0x90, 0x75, 0x6e, 0x3e, 0x0c, 0xff, 0x27, 0x3f, 0xf4, 0x78, 0x5b, 0x3d, 
0xdc, 0x4e, 0xe4, 0xbe, 0xcb, 0xd7, 0x94, 0xbe, 0xcf, 0x73, 0x50, 0xbf, 
0xde, 0x78, 0x3f, 0xbe, 0xa6, 0xc3, 0x54, 0xbf, 0x6d, 0x9c, 0x35, 0xbf, 
0xc7, 0xba, 0xb4, 0x3f, 0xab, 0x6f, 0x41, 0x3d, 0x67, 0x47, 0xe1, 0xbe, 
0x0b, 0xa1, 0x99, 0xbe, 0x06, 0xfe, 0xfe, 0xbe, 0x48, 0x1a, 0xa0, 0x3f, 
0x5c, 0x2e, 0x19, 0xbf, 0x9c, 0x99, 0xa5, 0x3e, 0x55, 0xcb, 0x05, 0x3f, 
0x39, 0xf7, 0xea, 0xbd, 0xa0, 0xcd, 0x06, 0xbe, 0x05, 0x23, 0x4c, 0xbf, 
0xa7, 0xc8, 0xcc, 0xbe, 0x25, 0x25, 0xc6, 0x3e, 0x87, 0xc4, 0x48, 0x3e, 
0xe6, 0x38, 0x8f, 0xbe, 0x90, 0x7c, 0xa4, 0xbf, 0xb9, 0x54, 0x88, 0xbd, 
0x36, 0x47, 0x32, 0x3f, 0xb9, 0xff, 0xbe, 0xbe, 0x91, 0xb8, 0xd4, 0x3e, 
0x0f, 0x94, 0xd6, 0xbe, 0xac, 0x7b, 0xcf, 0xbd, 0x51, 0x54, 0x23, 0xbf, 
0xbe, 0x19, 0x38, 0x3f, 0x34, 0x32, 0x42, 0xbe, 0x1e, 0xed, 0x85, 0xbe, 
0x2b, 0xb5, 0x91, 0x3f, 0xda, 0xcc, 0x46, 0xbf, 0x50, 0x2f, 0x01, 0xbe, 
0x31, 0xf7, 0x04, 0x40, 0x9d, 0x80, 0x1e, 0x40, 0xaf, 0x10, 0x48, 0x3f, 
0xb5, 0x50, 0x80, 0x3e, 0x9e, 0x8e, 0x4b, 0xbf, 0x7b, 0x29, 0x84, 0x3f, 
0xf9, 0x31, 0x20, 0x3e, 0xbf, 0x7a, 0x35, 0x3f, 0xf5, 0xb7, 0x8a, 0x3f, 
0x75, 0xa2, 0xa5, 0x3e, 0x3b, 0x9c, 0xee, 0x3d, 0xd5, 0xd4, 0x65, 0xbf, 
0x19, 0x46, 0x22, 0xc0, 0x2a, 0x73, 0x24, 0x40, 0xdf, 0x74, 0xd0, 0xbe, 
0x52, 0x86, 0x09, 0xbf, 0x52, 0x5e, 0xe2, 0xbf, 0xb9, 0x2f, 0xa1, 0xbf, 
0x8b, 0xbd, 0x57, 0xbf, 0x8e, 0x98, 0x9e, 0xbe, 0x4c, 0x6b, 0x32, 0xbf, 
0x81, 0x35, 0x8e, 0xbf, 0xc0, 0xca, 0x51, 0xbf, 0x59, 0x19, 0x7f, 0xbf, 
0xc3, 0x12, 0xd3, 0x3e, 0x4d, 0x3b, 0xdc, 0xbf, 0x72, 0x3d, 0x0a, 0x40, 
0x23, 0x25, 0xb4, 0xbd, 0xc7, 0x4f, 0x63, 0xbe, 0xc7, 0x3b, 0xd3, 0x3e, 
0x1e, 0x34, 0x12, 0x3e, 0xb6, 0x74, 0x15, 0x3f, 0x35, 0xff, 0xb7, 0x3f, 
0x20, 0x98, 0x43, 0x3f, 0xe0, 0x4d, 0x41, 0x3e, 0x0a, 0xfe, 0x5c, 0xbf, 
0xa9, 0x70, 0x52, 0x3e, 0xe8, 0x24, 0x1b, 0x40, 0xc1, 0xc2, 0xb1, 0xbf, 
0x4e, 0xdc, 0xa6, 0x3f, 0xf0, 0xb0, 0x16, 0xbf, 0x1a, 0xe6, 0x4d, 0xc0, 
0x15, 0x59, 0xd7, 0xbe, 0x13, 0xe9, 0x34, 0xbd, 0x0e, 0x88, 0x74, 0x3f, 
0x53, 0x94, 0x8a, 0x3f, 0xde, 0x59, 0x70, 0xbd, 0x95, 0xbb, 0x7a, 0x3f, 
0xfc, 0x26, 0x75, 0xbf, 0x09, 0x49, 0x49, 0xbf, 0xfd, 0xeb, 0x04, 0xbf, 
0xf3, 0x11, 0x78, 0x3f, 0x6a, 0xd6, 0x2f, 0x40, 0xb1, 0x69, 0x55, 0xbe, 
0xee, 0x5a, 0x56, 0xbe, 0x9e, 0xae, 0x73, 0xbf, 0x87, 0x23, 0xc2, 0x3e, 
0xf8, 0x66, 0xb3, 0xbf, 0x73, 0x5c, 0x86, 0xbf, 0x5a, 0xf6, 0xdb, 0xbe, 
0xd2, 0x0e, 0x22, 0x3f, 0x2a, 0x51, 0x0b, 0x3f, 0xfa, 0x59, 0x25, 0x3f, 
0x5f, 0xf3, 0x0d, 0x3e, 0x36, 0xe4, 0xff, 0xff, 0x04, 0x00, 0x00, 0x00, 
0x00, 0x03, 0x00, 0x00, 0x86, 0x42, 0xa5, 0xbd, 0x06, 0x50, 0x9f, 0x3e, 
0x30, 0xbb, 0x25, 0xbe, 0x89, 0x69, 0x61, 0x3f, 0x5b, 0xea, 0x93, 0x3f, 
0xc7, 0x1b, 0xaa, 0xbe, 0xc1, 0xf4, 0xee, 0xbd, 0x95, 0x60, 0x04, 0x3e, 
0xf2, 0xe5, 0x4b, 0x3e, 0x49, 0xa7, 0xb8, 0x40, 0x81, 0x61, 0xc3, 0xbf, 
0x39, 0x31, 0x0f, 0xbf, 0x3b, 0xb6, 0xbf, 0xbe, 0x65, 0x8a, 0x48, 0xbe, 
0x13, 0xf9, 0x12, 0x3d, 0xa6, 0x5d, 0x8f, 0x3f, 0xb1, 0x90, 0x30, 0xbf, 
0xb6, 0xb4, 0x27, 0xbe, 0x23, 0x40, 0xae, 0x3c, 0x3e, 0x27, 0x97, 0x3e, 
0x02, 0xaf, 0x51, 0xbe, 0x12, 0x77, 0x8d, 0x3d, 0x2a, 0x44, 0x79, 0xc0, 
0x25, 0xc8, 0xae, 0x3e, 0x88, 0x2d, 0x84, 0x3e, 0xcb, 0xc2, 0x71, 0x3d, 
0x41, 0x53, 0x4b, 0xbe, 0xf0, 0xa2, 0x86, 0xc0, 0x87, 0x9d, 0xf2, 0x3f, 
0x41, 0xb0, 0x11, 0xbf, 0xf2, 0x13, 0xe7, 0x3b, 0x74, 0x8a, 0x00, 0xbe, 
0xa8, 0x05, 0xa4, 0xbc, 0x63, 0x36, 0x96, 0x3f, 0xfd, 0xf7, 0x61, 0x3f, 
0xc7, 0x73, 0xac, 0xbe, 0x23, 0x69, 0xb6, 0xbd, 0xf8, 0x32, 0xce, 0x3d, 
0x9d, 0x45, 0xcc, 0xbc, 0xbb, 0x72, 0x8f, 0xbe, 0xcd, 0xcb, 0xae, 0xbd, 
0x6a, 0x07, 0xb2, 0x3e, 0xc1, 0x8b, 0x12, 0x3e, 0x4f, 0xe9, 0xbc, 0x3d, 
0xf8, 0x6d, 0xc2, 0xbd, 0x27, 0x5c, 0x35, 0xbe, 0xbd, 0x2e, 0x9c, 0x3e, 
0xd7, 0x03, 0xab, 0x3f, 0xee, 0x31, 0x22, 0x3d, 0x1a, 0x59, 0xb8, 0xbd, 
0xd6, 0xb6, 0x1f, 0xbe, 0x21, 0x84, 0x29, 0xbf, 0xbf, 0x3f, 0x02, 0x3f, 
0x9d, 0xf9, 0x4d, 0x3d, 0x25, 0xb0, 0xa6, 0x3d, 0x8d, 0x60, 0x6d, 0xbd, 
0x7e, 0x4f, 0xd9, 0xbd, 0xd5, 0xf6, 0xf9, 0xbf, 0x79, 0x8c, 0x44, 0xbe, 
0x38, 0xad, 0xb2, 0x3e, 0x3d, 0x52, 0xa2, 0x3e, 0x4e, 0x30, 0xd9, 0x3e, 
0x89, 0xee, 0x60, 0x3d, 0x93, 0x01, 0x1d, 0xbf, 0xa7, 0x30, 0xdd, 0xbe, 
0x2c, 0xff, 0x9c, 0xbf, 0xb0, 0x0b, 0x13, 0xbe, 0xd2, 0x51, 0x8c, 0xbc, 
0x2f, 0xc2, 0xde, 0xbc, 0xc2, 0x7f, 0x52, 0x3f, 0x0a, 0x37, 0x1a, 0x40, 
0x12, 0x3c, 0x99, 0x3d, 0x30, 0xd8, 0x12, 0xbd, 0xf0, 0xb3, 0x18, 0x3e, 
0xf7, 0xf4, 0x2e, 0x3e, 0x30, 0x04, 0xc7, 0x3f, 0x74, 0xf6, 0x28, 0x3f, 
0x54, 0x22, 0x1c, 0x3f, 0x30, 0x0a, 0x5b, 0xbb, 0x78, 0x7b, 0x18, 0x3c, 
0x00, 0x75, 0xe7, 0xb9, 0x61, 0x1e, 0xb8, 0xbc, 0xf3, 0x0e, 0xc8, 0xbc, 
0x4b, 0xe3, 0x0f, 0xbd, 0x7d, 0x1c, 0x76, 0x3c, 0x7d, 0x38, 0xf2, 0xbc, 
0x77, 0xd2, 0xc9, 0x3c, 0xa4, 0x8b, 0xc6, 0xbc, 0xa2, 0x1d, 0x8f, 0xbb, 
0x27, 0x0c, 0xd9, 0x3e, 0x66, 0x0d, 0x03, 0xbe, 0xc6, 0xa9, 0xc0, 0xbc, 
0xb3, 0x50, 0x04, 0x3c, 0x4a, 0x4e, 0x22, 0x3e, 0xa0, 0x06, 0xbc, 0xbd, 
0xd7, 0x18, 0x5b, 0xbf, 0x94, 0x5c, 0x88, 0x3c, 0x28, 0x9a, 0x2c, 0x3e, 
0xad, 0xd3, 0x8a, 0x3e, 0xee, 0x91, 0x05, 0x3f, 0x63, 0x99, 0xd6, 0xbe, 
0xa3, 0x1d, 0x9d, 0xbe, 0xee, 0xbd, 0x61, 0x3d, 0x1b, 0x0d, 0x1a, 0xbe, 
0x15, 0xd8, 0x0f, 0xbd, 0x36, 0x06, 0x35, 0x40, 0xfe, 0x87, 0xb4, 0x3e, 
0x2a, 0x76, 0x0c, 0x3e, 0x2f, 0x43, 0xb7, 0xbd, 0xfb, 0x4d, 0xd3, 0x3d, 
0xab, 0xb0, 0x92, 0x3d, 0xcd, 0x32, 0xa5, 0xbf, 0xba, 0x6d, 0x64, 0x3d, 
0x57, 0x07, 0x22, 0xbf, 0x0e, 0x48, 0xce, 0x3d, 0xab, 0xc5, 0x73, 0x3e, 
0xea, 0x22, 0xf3, 0xbd, 0x98, 0xd4, 0xae, 0xbd, 0xff, 0x2b, 0x49, 0x3f, 
0x7f, 0xc3, 0xfc, 0xbc, 0x3b, 0x2b, 0x1b, 0x3e, 0x53, 0xab, 0xaf, 0xbd, 
0xae, 0xc5, 0xd1, 0xbd, 0x8f, 0xe7, 0xcf, 0x3f, 0xe6, 0x06, 0x61, 0x3f, 
0xad, 0x20, 0xd4, 0x3d, 0x77, 0xb4, 0x6c, 0x3d, 0x53, 0xde, 0x8e, 0x3e, 
0x25, 0x93, 0xbb, 0x3d, 0xc7, 0x12, 0xd3, 0xbf, 0x5f, 0x5a, 0x04, 0x3c, 
0xfd, 0x2a, 0xce, 0x3e, 0x47, 0xc4, 0x33, 0xbe, 0xa9, 0x50, 0x25, 0x3e, 
0xe9, 0x6e, 0x33, 0xbd, 0xac, 0x6a, 0xb1, 0xbe, 0xe9, 0xb3, 0xd1, 0x3e, 
0x6c, 0x2e, 0x54, 0x3e, 0xc0, 0xcf, 0x90, 0xbe, 0xde, 0x69, 0x7e, 0xbd, 
0x27, 0x9e, 0xf1, 0x3c, 0x10, 0x53, 0x07, 0x3f, 0x55, 0x34, 0x2a, 0x3e, 
0x29, 0xc6, 0x92, 0xbf, 0xe3, 0x3c, 0x45, 0x3e, 0x20, 0xee, 0x87, 0xbd, 
0xd8, 0xec, 0x84, 0xbd, 0xa7, 0x7b, 0x60, 0xbe, 0xf0, 0x6a, 0x9a, 0x3f, 
0x5a, 0xbb, 0x49, 0xbf, 0x7e, 0xcc, 0x90, 0xbb, 0xfc, 0xd9, 0xc1, 0xbd, 
0x52, 0xde, 0x39, 0xbd, 0xf9, 0x0a, 0xb1, 0x3e, 0x58, 0xa0, 0x72, 0xbb, 
0x3a, 0x74, 0xd1, 0x3d, 0xcd, 0x11, 0x5a, 0xbe, 0xe1, 0x55, 0xc7, 0x3e, 
0x4c, 0x3d, 0x82, 0x3b, 0xf9, 0x52, 0x36, 0x40, 0x4c, 0xc0, 0x02, 0xc0, 
0x8c, 0x60, 0x13, 0xbf, 0x6b, 0xc2, 0xaf, 0x3d, 0xe6, 0x4b, 0x06, 0x3d, 
0xbf, 0x60, 0x0c, 0x3e, 0xc0, 0x0f, 0x35, 0xbe, 0x6b, 0x02, 0xf8, 0x3d, 
0xe0, 0xc2, 0xf1, 0xbe, 0xfc, 0x5d, 0xb0, 0xbb, 0xf9, 0xd8, 0x2a, 0xbc, 
0x18, 0x8f, 0x69, 0x3c, 0x3b, 0xdb, 0x71, 0x3e, 0x13, 0xa5, 0xa0, 0xbd, 
0xff, 0xd6, 0x9d, 0x3e, 0x5f, 0xca, 0xa5, 0x3e, 0x18, 0x5c, 0x92, 0xbc, 
0x53, 0x14, 0x1c, 0xbe, 0xfb, 0x19, 0xb8, 0x3f, 0x0c, 0x39, 0x8c, 0x3f, 
0x32, 0x6c, 0x28, 0xbe, 0x1c, 0x84, 0xa2, 0xbe, 0x88, 0xb1, 0x68, 0xbd, 
0x29, 0xc4, 0xc1, 0x3d, 0x05, 0x48, 0x27, 0xbf, 0x4a, 0xff, 0xc3, 0xbe, 
0x05, 0xe8, 0x54, 0xbe, 0x78, 0x1a, 0x2e, 0xbf, 0x89, 0x33, 0xd3, 0x3e, 
0xfe, 0x64, 0xea, 0xbd, 0xc5, 0x34, 0xb8, 0x3f, 0xba, 0xd5, 0x38, 0xbf, 
0x39, 0x5b, 0x99, 0xbe, 0xa8, 0xda, 0xff, 0xff, 0xac, 0xda, 0xff, 0xff, 
0xb0, 0xda, 0xff, 0xff, 0xb4, 0xda, 0xff, 0xff, 0xb8, 0xda, 0xff, 0xff, 
0xbc, 0xda, 0xff, 0xff, 0xc0, 0xda, 0xff, 0xff, 0xc4, 0xda, 0xff, 0xff, 
0xc8, 0xda, 0xff, 0xff, 0xcc, 0xda, 0xff, 0xff, 0xd0, 0xda, 0xff, 0xff, 
0xd4, 0xda, 0xff, 0xff, 0xd8, 0xda, 0xff, 0xff, 0xdc, 0xda, 0xff, 0xff, 
0xe0, 0xda, 0xff, 0xff, 0xe4, 0xda, 0xff, 0xff, 0xe8, 0xda, 0xff, 0xff, 
0xec, 0xda, 0xff, 0xff, 0xf0, 0xda, 0xff, 0xff, 0xf4, 0xda, 0xff, 0xff, 
0xf8, 0xda, 0xff, 0xff, 0xfc, 0xda, 0xff, 0xff, 0x00, 0xdb, 0xff, 0xff, 
0x04, 0xdb, 0xff, 0xff, 0x08, 0xdb, 0xff, 0xff, 0x0c, 0xdb, 0xff, 0xff, 
0x10, 0xdb, 0xff, 0xff, 0x14, 0xdb, 0xff, 0xff, 0x18, 0xdb, 0xff, 0xff, 
0x1c, 0xdb, 0xff, 0xff, 0x20, 0xdb, 0xff, 0xff, 0x24, 0xdb, 0xff, 0xff, 
0x28, 0xdb, 0xff, 0xff, 0x2c, 0xdb, 0xff, 0xff, 0x30, 0xdb, 0xff, 0xff, 
0xce, 0xe7, 0xff, 0xff, 0x04, 0x00, 0x00, 0x00, 0x08, 0x00, 0x00, 0x00, 
0xff, 0xff, 0xff, 0xff, 0x08, 0x00, 0x00, 0x00, 0x48, 0xdb, 0xff, 0xff, 
0x4c, 0xdb, 0xff, 0xff, 0xea, 0xe7, 0xff, 0xff, 0x04, 0x00, 0x00, 0x00, 
0x04, 0x00, 0x00, 0x00, 0x01, 0x00, 0x00, 0x00, 0xfa, 0xe7, 0xff, 0xff, 
0x04, 0x00, 0x00, 0x00, 0x0c, 0x00, 0x00, 0x00, 0x01, 0x00, 0x00, 0x00, 
0x00, 0x00, 0x00, 0x00, 0x02, 0x00, 0x00, 0x00, 0x12, 0xe8, 0xff, 0xff, 
0x04, 0x00, 0x00, 0x00, 0x04, 0x00, 0x00, 0x00, 0x00, 0x00, 0x00, 0x00, 
0x22, 0xe8, 0xff, 0xff, 0x04, 0x00, 0x00, 0x00, 0x04, 0x00, 0x00, 0x00, 
0x08, 0x00, 0x00, 0x00, 0x32, 0xe8, 0xff, 0xff, 0x04, 0x00, 0x00, 0x00, 
0x04, 0x00, 0x00, 0x00, 0x0a, 0x00, 0x00, 0x00, 0x42, 0xe8, 0xff, 0xff, 
0x04, 0x00, 0x00, 0x00, 0x0c, 0x00, 0x00, 0x00, 0x12, 0xa5, 0x2e, 0xbf, 
0x4e, 0x5b, 0xc5, 0x3f, 0xaf, 0x32, 0xc5, 0xbe, 0x5a, 0xe8, 0xff, 0xff, 
0x04, 0x00, 0x00, 0x00, 0x60, 0x00, 0x00, 0x00, 0x79, 0x7b, 0x9d, 0xbe, 
0xc5, 0x6a, 0x96, 0xbf, 0x6a, 0x32, 0xbf, 0xbd, 0xb8, 0xf9, 0xbb, 0xbf, 
0x80, 0xb0, 0xb8, 0x3f, 0x1a, 0xfa, 0x41, 0x3f, 0x05, 0x96, 0x6f, 0xbe, 
0xcb, 0x7e, 0x3a, 0x3f, 0xbc, 0x94, 0x39, 0x3f, 0xb6, 0xcf, 0x08, 0x40, 
0xb4, 0x95, 0x8a, 0xbd, 0x62, 0x27, 0xc6, 0x3d, 0x2b, 0x8c, 0x4f, 0xc0, 
0x7f, 0x3c, 0x43, 0xc0, 0x59, 0xa8, 0x05, 0x40, 0xc4, 0xa5, 0xa3, 0xbf, 
0xc7, 0x1b, 0x4f, 0xbf, 0x35, 0x11, 0xed, 0xbe, 0x31, 0xda, 0x1e, 0x3f, 
0x89, 0x08, 0x7b, 0x3f, 0x21, 0xdf, 0xac, 0x3f, 0x9d, 0xed, 0x35, 0x3d, 
0x2a, 0x47, 0xc6, 0xbf, 0x7d, 0xa3, 0x65, 0xbd, 0xc6, 0xe8, 0xff, 0xff, 
0x04, 0x00, 0x00, 0x00, 0x0c, 0x00, 0x00, 0x00, 0xff, 0xff, 0xff, 0xff, 
0x00, 0x00, 0x00, 0x00, 0x00, 0x00, 0x00, 0x00, 0xde, 0xe8, 0xff, 0xff, 
0x04, 0x00, 0x00, 0x00, 0x0c, 0x00, 0x00, 0x00, 0x00, 0x00, 0x00, 0x00, 
0x00, 0x00, 0x00, 0x00, 0x08, 0x00, 0x00, 0x00, 0xf6, 0xe8, 0xff, 0xff, 
0x04, 0x00, 0x00, 0x00, 0x0c, 0x00, 0x00, 0x00, 0x01, 0x00, 0x00, 0x00, 
0x01, 0x00, 0x00, 0x00, 0x01, 0x00, 0x00, 0x00, 0x74, 0xdc, 0xff, 0xff, 
0x78, 0xdc, 0xff, 0xff, 0x0f, 0x00, 0x00, 0x00, 0x4d, 0x4c, 0x49, 0x52, 
0x20, 0x43, 0x6f, 0x6e, 0x76, 0x65, 0x72, 0x74, 0x65, 0x64, 0x2e, 0x00, 
0x03, 0x00, 0x00, 0x00, 0x9c, 0x14, 0x00, 0x00, 0xd8, 0x10, 0x00, 0x00, 
0x04, 0x00, 0x00, 0x00, 0x7e, 0xeb, 0xff, 0xff, 0x14, 0x00, 0x00, 0x00, 
0x34, 0x00, 0x00, 0x00, 0x80, 0x04, 0x00, 0x00, 0x98, 0x04, 0x00, 0x00, 
0xb0, 0x04, 0x00, 0x00, 0x1e, 0x00, 0x00, 0x00, 0x73, 0x65, 0x71, 0x75, 
0x65, 0x6e, 0x74, 0x69, 0x61, 0x6c, 0x5f, 0x31, 0x2f, 0x6c, 0x73, 0x74, 
0x6d, 0x5f, 0x31, 0x2f, 0x77, 0x68, 0x69, 0x6c, 0x65, 0x5f, 0x62, 0x6f, 
0x64, 0x79, 0x00, 0x00, 0x12, 0x00, 0x00, 0x00, 0x1c, 0x04, 0x00, 0x00, 
0xe4, 0x03, 0x00, 0x00, 0xb0, 0x03, 0x00, 0x00, 0x7c, 0x03, 0x00, 0x00, 
0x44, 0x03, 0x00, 0x00, 0x10, 0x03, 0x00, 0x00, 0xdc, 0x02, 0x00, 0x00, 
0x98, 0x02, 0x00, 0x00, 0x74, 0x02, 0x00, 0x00, 0x50, 0x02, 0x00, 0x00, 
0x1c, 0x02, 0x00, 0x00, 0xf8, 0x01, 0x00, 0x00, 0xd4, 0x01, 0x00, 0x00, 
0xa0, 0x01, 0x00, 0x00, 0x6c, 0x01, 0x00, 0x00, 0x48, 0x01, 0x00, 0x00, 
0x14, 0x01, 0x00, 0x00, 0x04, 0x00, 0x00, 0x00, 0x14, 0xe9, 0xff, 0xff, 
0x10, 0x00, 0x00, 0x00, 0xec, 0x00, 0x00, 0x00, 0xf0, 0x00, 0x00, 0x00, 
0x12, 0x00, 0x00, 0x00, 0xd9, 0x00, 0x00, 0x00, 0x11, 0x54, 0x65, 0x6e, 
0x73, 0x6f, 0x72, 0x4c, 0x69, 0x73, 0x74, 0x53, 0x65, 0x74, 0x49, 0x74, 
0x65, 0x6d, 0x00, 0xbc, 0x12, 0x11, 0x54, 0x65, 0x6e, 0x73, 0x6f, 0x72, 
0x4c, 0x69, 0x73, 0x74, 0x53, 0x65, 0x74, 0x49, 0x74, 0x65, 0x6d, 0x1a, 
0x00, 0x1a, 0x00, 0x1a, 0x00, 0x2a, 0x23, 0x0a, 0x1d, 0x72, 0x65, 0x73, 
0x69, 0x7a, 0x65, 0x5f, 0x69, 0x66, 0x5f, 0x69, 0x6e, 0x64, 0x65, 0x78, 
0x5f, 0x6f, 0x75, 0x74, 0x5f, 0x6f, 0x66, 0x5f, 0x62, 0x6f, 0x75, 0x6e, 
0x64, 0x73, 0x12, 0x02, 0x28, 0x00, 0x2a, 0x13, 0x0a, 0x0d, 0x65, 0x6c, 
0x65, 0x6d, 0x65, 0x6e, 0x74, 0x5f, 0x64, 0x74, 0x79, 0x70, 0x65, 0x12, 
0x02, 0x30, 0x01, 0x32, 0x67, 0x0a, 0x3e, 0x73, 0x65, 0x71, 0x75, 0x65, 
0x6e, 0x74, 0x69, 0x61, 0x6c, 0x5f, 0x31, 0x2f, 0x6c, 0x73, 0x74, 0x6d, 
0x5f, 0x31, 0x2f, 0x77, 0x68, 0x69, 0x6c, 0x65, 0x2f, 0x54, 0x65, 0x6e, 
0x73, 0x6f, 0x72, 0x41, 0x72, 0x72, 0x61, 0x79, 0x56, 0x32, 0x57, 0x72, 
0x69, 0x74, 0x65, 0x2f, 0x54, 0x65, 0x6e, 0x73, 0x6f, 0x72, 0x4c, 0x69, 
0x73, 0x74, 0x53, 0x65, 0x74, 0x49, 0x74, 0x65, 0x6d, 0x12, 0x25, 0x73, 
0x65, 0x71, 0x75, 0x65, 0x6e, 0x74, 0x69, 0x61, 0x6c, 0x5f, 0x31, 0x5f, 
0x6c, 0x73, 0x74, 0x6d, 0x5f, 0x31, 0x5f, 0x77, 0x68, 0x69, 0x6c, 0x65, 
0x5f, 0x62, 0x6f, 0x64, 0x79, 0x5f, 0x32, 0x39, 0x37, 0x33, 0x35, 0x35, 
0x00, 0x02, 0xd1, 0xbf, 0x14, 0x14, 0x04, 0x28, 0x01, 0x00, 0x00, 0x00, 
0x01, 0x00, 0x00, 0x00, 0x1f, 0x00, 0x00, 0x00, 0x03, 0x00, 0x00, 0x00, 
0x02, 0x00, 0x00, 0x00, 0x06, 0x00, 0x00, 0x00, 0x1e, 0x00, 0x00, 0x00, 
0x7a, 0xea, 0xff, 0xff, 0x14, 0x00, 0x00, 0x00, 0x00, 0x00, 0x00, 0x15, 
0x10, 0x00, 0x00, 0x00, 0x14, 0x00, 0x00, 0x00, 0x10, 0x00, 0x00, 0x00, 
0x4c, 0xde, 0xff, 0xff, 0x01, 0x00, 0x00, 0x00, 0x1e, 0x00, 0x00, 0x00, 
0x02, 0x00, 0x00, 0x00, 0x19, 0x00, 0x00, 0x00, 0x1d, 0x00, 0x00, 0x00, 
0xda, 0xea, 0xff, 0xff, 0x0c, 0x00, 0x00, 0x00, 0x10, 0x00, 0x00, 0x00, 
0x11, 0x00, 0x00, 0x00, 0x01, 0x00, 0x00, 0x00, 0x1d, 0x00, 0x00, 0x00, 
0x01, 0x00, 0x00, 0x00, 0x1c, 0x00, 0x00, 0x00, 0xca, 0xea, 0xff, 0xff, 
0x14, 0x00, 0x00, 0x00, 0x00, 0x00, 0x00, 0x0b, 0x10, 0x00, 0x00, 0x00, 
0x14, 0x00, 0x00, 0x00, 0x0c, 0x00, 0x00, 0x00, 0x9c, 0xde, 0xff, 0xff, 
0x01, 0x00, 0x00, 0x00, 0x1c, 0x00, 0x00, 0x00, 0x02, 0x00, 0x00, 0x00, 
0x18, 0x00, 0x00, 0x00, 0x1b, 0x00, 0x00, 0x00, 0xfa, 0xea, 0xff, 0xff, 
0x14, 0x00, 0x00, 0x00, 0x00, 0x00, 0x00, 0x15, 0x10, 0x00, 0x00, 0x00, 
0x14, 0x00, 0x00, 0x00, 0x10, 0x00, 0x00, 0x00, 0xcc, 0xde, 0xff, 0xff, 
0x01, 0x00, 0x00, 0x00, 0x1b, 0x00, 0x00, 0x00, 0x02, 0x00, 0x00, 0x00, 
0x16, 0x00, 0x00, 0x00, 0x1a, 0x00, 0x00, 0x00, 0x5a, 0xeb, 0xff, 0xff, 
0x0c, 0x00, 0x00, 0x00, 0x10, 0x00, 0x00, 0x00, 0x11, 0x00, 0x00, 0x00, 
0x01, 0x00, 0x00, 0x00, 0x1a, 0x00, 0x00, 0x00, 0x01, 0x00, 0x00, 0x00, 
0x14, 0x00, 0x00, 0x00, 0x7a, 0xeb, 0xff, 0xff, 0x0c, 0x00, 0x00, 0x00, 
0x10, 0x00, 0x00, 0x00, 0x0f, 0x00, 0x00, 0x00, 0x01, 0x00, 0x00, 0x00, 
0x19, 0x00, 0x00, 0x00, 0x01, 0x00, 0x00, 0x00, 0x15, 0x00, 0x00, 0x00, 
0x6a, 0xeb, 0xff, 0xff, 0x14, 0x00, 0x00, 0x00, 0x00, 0x00, 0x00, 0x15, 
0x10, 0x00, 0x00, 0x00, 0x14, 0x00, 0x00, 0x00, 0x10, 0x00, 0x00, 0x00, 
0x3c, 0xdf, 0xff, 0xff, 0x01, 0x00, 0x00, 0x00, 0x18, 0x00, 0x00, 0x00, 
0x02, 0x00, 0x00, 0x00, 0x17, 0x00, 0x00, 0x00, 0x04, 0x00, 0x00, 0x00, 
0xca, 0xeb, 0xff, 0xff, 0x0c, 0x00, 0x00, 0x00, 0x10, 0x00, 0x00, 0x00, 
0x0f, 0x00, 0x00, 0x00, 0x01, 0x00, 0x00, 0x00, 0x17, 0x00, 0x00, 0x00, 
0x01, 0x00, 0x00, 0x00, 0x13, 0x00, 0x00, 0x00, 0xea, 0xeb, 0xff, 0xff, 
0x0c, 0x00, 0x00, 0x00, 0x10, 0x00, 0x00, 0x00, 0x0f, 0x00, 0x00, 0x00, 
0x01, 0x00, 0x00, 0x00, 0x16, 0x00, 0x00, 0x00, 0x01, 0x00, 0x00, 0x00, 
0x12, 0x00, 0x00, 0x00, 0xda, 0xeb, 0xff, 0xff, 0x14, 0x00, 0x00, 0x00, 
0x00, 0x00, 0x00, 0x23, 0x14, 0x00, 0x00, 0x00, 0x24, 0x00, 0x00, 0x00, 
0x0e, 0x00, 0x00, 0x00, 0x46, 0xec, 0xff, 0xff, 0x04, 0x00, 0x00, 0x00, 
0x04, 0x00, 0x00, 0x00, 0x12, 0x00, 0x00, 0x00, 0x13, 0x00, 0x00, 0x00, 
0x14, 0x00, 0x00, 0x00, 0x15, 0x00, 0x00, 0x00, 0x02, 0x00, 0x00, 0x00, 
0x07, 0x00, 0x00, 0x00, 0x11, 0x00, 0x00, 0x00, 0x1a, 0xec, 0xff, 0xff, 
0x14, 0x00, 0x00, 0x00, 0x00, 0x00, 0x00, 0x0b, 0x10, 0x00, 0x00, 0x00, 
0x14, 0x00, 0x00, 0x00, 0x0c, 0x00, 0x00, 0x00, 0xec, 0xdf, 0xff, 0xff, 
0x01, 0x00, 0x00, 0x00, 0x11, 0x00, 0x00, 0x00, 0x02, 0x00, 0x00, 0x00, 
0x10, 0x00, 0x00, 0x00, 0x0a, 0x00, 0x00, 0x00, 0x4a, 0xec, 0xff, 0xff, 
0x14, 0x00, 0x00, 0x00, 0x00, 0x00, 0x00, 0x0b, 0x10, 0x00, 0x00, 0x00, 
0x14, 0x00, 0x00, 0x00, 0x0c, 0x00, 0x00, 0x00, 0x1c, 0xe0, 0xff, 0xff, 
0x01, 0x00, 0x00, 0x00, 0x10, 0x00, 0x00, 0x00, 0x02, 0x00, 0x00, 0x00, 
0x0f, 0x00, 0x00, 0x00, 0x0c, 0x00, 0x00, 0x00, 0x7a, 0xec, 0xff, 0xff, 
0x14, 0x00, 0x00, 0x00, 0x00, 0x00, 0x00, 0x08, 0x10, 0x00, 0x00, 0x00, 
0x14, 0x00, 0x00, 0x00, 0x08, 0x00, 0x00, 0x00, 0x4c, 0xe0, 0xff, 0xff, 
0x01, 0x00, 0x00, 0x00, 0x0f, 0x00, 0x00, 0x00, 0x03, 0x00, 0x00, 0x00, 
0x0e, 0x00, 0x00, 0x00, 0x08, 0x00, 0x00, 0x00, 0xff, 0xff, 0xff, 0xff, 
0xae, 0xec, 0xff, 0xff, 0x14, 0x00, 0x00, 0x00, 0x00, 0x00, 0x00, 0x17, 
0x10, 0x00, 0x00, 0x00, 0x14, 0x00, 0x00, 0x00, 0x0d, 0x00, 0x00, 0x00, 
0x80, 0xe0, 0xff, 0xff, 0x01, 0x00, 0x00, 0x00, 0x0e, 0x00, 0x00, 0x00, 
0x02, 0x00, 0x00, 0x00, 0x05, 0x00, 0x00, 0x00, 0x01, 0x00, 0x00, 0x00, 
0xde, 0xec, 0xff, 0xff, 0x14, 0x00, 0x00, 0x00, 0x00, 0x00, 0x00, 0x0b, 
0x10, 0x00, 0x00, 0x00, 0x14, 0x00, 0x00, 0x00, 0x0c, 0x00, 0x00, 0x00, 
0xb0, 0xe0, 0xff, 0xff, 0x01, 0x00, 0x00, 0x00, 0x0d, 0x00, 0x00, 0x00, 
0x02, 0x00, 0x00, 0x00, 0x00, 0x00, 0x00, 0x00, 0x07, 0x00, 0x00, 0x00, 
0x0e, 0xed, 0xff, 0xff, 0x14, 0x00, 0x00, 0x00, 0x00, 0x00, 0x00, 0x08, 
0x10, 0x00, 0x00, 0x00, 0x14, 0x00, 0x00, 0x00, 0x08, 0x00, 0x00, 0x00, 
0xe0, 0xe0, 0xff, 0xff, 0x01, 0x00, 0x00, 0x00, 0x0c, 0x00, 0x00, 0x00, 
0x03, 0x00, 0x00, 0x00, 0x03, 0x00, 0x00, 0x00, 0x09, 0x00, 0x00, 0x00, 
0xff, 0xff, 0xff, 0xff, 0x42, 0xed, 0xff, 0xff, 0x14, 0x00, 0x00, 0x00, 
0x00, 0x00, 0x00, 0x0b, 0x10, 0x00, 0x00, 0x00, 0x14, 0x00, 0x00, 0x00, 
0x0c, 0x00, 0x00, 0x00, 0x14, 0xe1, 0xff, 0xff, 0x01, 0x00, 0x00, 0x00, 
0x0b, 0x00, 0x00, 0x00, 0x02, 0x00, 0x00, 0x00, 0x01, 0x00, 0x00, 0x00, 
0x07, 0x00, 0x00, 0x00, 0x06, 0x00, 0x00, 0x00, 0x0d, 0x00, 0x00, 0x00, 
0x0b, 0x00, 0x00, 0x00, 0x1f, 0x00, 0x00, 0x00, 0x1e, 0x00, 0x00, 0x00, 
0x1c, 0x00, 0x00, 0x00, 0x05, 0x00, 0x00, 0x00, 0x06, 0x00, 0x00, 0x00, 
0x00, 0x00, 0x00, 0x00, 0x01, 0x00, 0x00, 0x00, 0x02, 0x00, 0x00, 0x00, 
0x03, 0x00, 0x00, 0x00, 0x04, 0x00, 0x00, 0x00, 0x05, 0x00, 0x00, 0x00, 
0x20, 0x00, 0x00, 0x00, 0xd8, 0x0b, 0x00, 0x00, 0xa4, 0x0b, 0x00, 0x00, 
0x4c, 0x0b, 0x00, 0x00, 0x04, 0x0b, 0x00, 0x00, 0xbc, 0x0a, 0x00, 0x00, 
0x6c, 0x0a, 0x00, 0x00, 0x2c, 0x0a, 0x00, 0x00, 0xec, 0x09, 0x00, 0x00, 
0xa8, 0x09, 0x00, 0x00, 0x64, 0x09, 0x00, 0x00, 0xfc, 0x08, 0x00, 0x00, 
0xb0, 0x08, 0x00, 0x00, 0x40, 0x08, 0x00, 0x00, 0xf4, 0x07, 0x00, 0x00, 
0x74, 0x07, 0x00, 0x00, 0x04, 0x07, 0x00, 0x00, 0x98, 0x06, 0x00, 0x00, 
0x2c, 0x06, 0x00, 0x00, 0xc0, 0x05, 0x00, 0x00, 0x50, 0x05, 0x00, 0x00, 
0xe0, 0x04, 0x00, 0x00, 0x70, 0x04, 0x00, 0x00, 0x00, 0x04, 0x00, 0x00, 
0x90, 0x03, 0x00, 0x00, 0x24, 0x03, 0x00, 0x00, 0xb4, 0x02, 0x00, 0x00, 
0x48, 0x02, 0x00, 0x00, 0xdc, 0x01, 0x00, 0x00, 0x70, 0x01, 0x00, 0x00, 
0x00, 0x01, 0x00, 0x00, 0x94, 0x00, 0x00, 0x00, 0x04, 0x00, 0x00, 0x00, 
0x64, 0xe7, 0xff, 0xff, 0x1c, 0x00, 0x00, 0x00, 0x00, 0x00, 0x00, 0x01, 
0x34, 0x00, 0x00, 0x00, 0x34, 0x00, 0x00, 0x00, 0x49, 0x00, 0x00, 0x00, 
0x00, 0x00, 0x00, 0x0e, 0x6c, 0x00, 0x00, 0x00, 0x01, 0x00, 0x00, 0x00, 
0x04, 0x00, 0x00, 0x00, 0x4a, 0xe7, 0xff, 0xff, 0x00, 0x00, 0x00, 0x01, 
0x04, 0x00, 0x00, 0x00, 0x02, 0x00, 0x00, 0x00, 0x00, 0x00, 0x00, 0x00, 
0x08, 0x00, 0x00, 0x00, 0x28, 0xe2, 0xff, 0xff, 0x3e, 0x00, 0x00, 0x00, 
0x73, 0x65, 0x71, 0x75, 0x65, 0x6e, 0x74, 0x69, 0x61, 0x6c, 0x5f, 0x31, 
0x2f, 0x6c, 0x73, 0x74, 0x6d, 0x5f, 0x31, 0x2f, 0x77, 0x68, 0x69, 0x6c, 
0x65, 0x2f, 0x54, 0x65, 0x6e, 0x73, 0x6f, 0x72, 0x41, 0x72, 0x72, 0x61, 
0x79, 0x56, 0x32, 0x57, 0x72, 0x69, 0x74, 0x65, 0x2f, 0x54, 0x65, 0x6e, 
0x73, 0x6f, 0x72, 0x4c, 0x69, 0x73, 0x74, 0x53, 0x65, 0x74, 0x49, 0x74, 
0x65, 0x6d, 0x00, 0x00, 0x00, 0x00, 0x00, 0x00, 0xa6, 0xe3, 0xff, 0xff, 
0x00, 0x00, 0x00, 0x01, 0x14, 0x00, 0x00, 0x00, 0x1c, 0x00, 0x00, 0x00, 
0x1c, 0x00, 0x00, 0x00, 0x48, 0x00, 0x00, 0x00, 0x44, 0x00, 0x00, 0x00, 
0x02, 0x00, 0x00, 0x00, 0xff, 0xff, 0xff, 0xff, 0x08, 0x00, 0x00, 0x00, 
0x9c, 0xe2, 0xff, 0xff, 0x2b, 0x00, 0x00, 0x00, 0x73, 0x65, 0x71, 0x75, 
0x65, 0x6e, 0x74, 0x69, 0x61, 0x6c, 0x5f, 0x31, 0x2f, 0x6c, 0x73, 0x74, 
0x6d, 0x5f, 0x31, 0x2f, 0x77, 0x68, 0x69, 0x6c, 0x65, 0x2f, 0x6c, 0x73, 
0x74, 0x6d, 0x5f, 0x63, 0x65, 0x6c, 0x6c, 0x5f, 0x31, 0x2f, 0x6d, 0x75, 
0x6c, 0x5f, 0x32, 0x00, 0x02, 0x00, 0x00, 0x00, 0x01, 0x00, 0x00, 0x00, 
0x08, 0x00, 0x00, 0x00, 0x0e, 0xe4, 0xff, 0xff, 0x00, 0x00, 0x00, 0x01, 
0x14, 0x00, 0x00, 0x00, 0x1c, 0x00, 0x00, 0x00, 0x1c, 0x00, 0x00, 0x00, 
0x47, 0x00, 0x00, 0x00, 0x48, 0x00, 0x00, 0x00, 0x02, 0x00, 0x00, 0x00, 
0xff, 0xff, 0xff, 0xff, 0x08, 0x00, 0x00, 0x00, 0x04, 0xe3, 0xff, 0xff, 
0x2c, 0x00, 0x00, 0x00, 0x73, 0x65, 0x71, 0x75, 0x65, 0x6e, 0x74, 0x69, 
0x61, 0x6c, 0x5f, 0x31, 0x2f, 0x6c, 0x73, 0x74, 0x6d, 0x5f, 0x31, 0x2f, 
0x77, 0x68, 0x69, 0x6c, 0x65, 0x2f, 0x6c, 0x73, 0x74, 0x6d, 0x5f, 0x63, 
0x65, 0x6c, 0x6c, 0x5f, 0x31, 0x2f, 0x54, 0x61, 0x6e, 0x68, 0x5f, 0x31, 
0x00, 0x00, 0x00, 0x00, 0x02, 0x00, 0x00, 0x00, 0x01, 0x00, 0x00, 0x00, 
0x08, 0x00, 0x00, 0x00, 0x7a, 0xe4, 0xff, 0xff, 0x00, 0x00, 0x00, 0x01, 
0x14, 0x00, 0x00, 0x00, 0x1c, 0x00, 0x00, 0x00, 0x1c, 0x00, 0x00, 0x00, 
0x46, 0x00, 0x00, 0x00, 0x44, 0x00, 0x00, 0x00, 0x02, 0x00, 0x00, 0x00, 
0xff, 0xff, 0xff, 0xff, 0x08, 0x00, 0x00, 0x00, 0x70, 0xe3, 0xff, 0xff, 
0x2b, 0x00, 0x00, 0x00, 0x73, 0x65, 0x71, 0x75, 0x65, 0x6e, 0x74, 0x69, 
0x61, 0x6c, 0x5f, 0x31, 0x2f, 0x6c, 0x73, 0x74, 0x6d, 0x5f, 0x31, 0x2f, 
0x77, 0x68, 0x69, 0x6c, 0x65, 0x2f, 0x6c, 0x73, 0x74, 0x6d, 0x5f, 0x63, 
0x65, 0x6c, 0x6c, 0x5f, 0x31, 0x2f, 0x61, 0x64, 0x64, 0x5f, 0x32, 0x00, 
0x02, 0x00, 0x00, 0x00, 0x01, 0x00, 0x00, 0x00, 0x08, 0x00, 0x00, 0x00, 
0xe2, 0xe4, 0xff, 0xff, 0x00, 0x00, 0x00, 0x01, 0x14, 0x00, 0x00, 0x00, 
0x1c, 0x00, 0x00, 0x00, 0x1c, 0x00, 0x00, 0x00, 0x45, 0x00, 0x00, 0x00, 
0x44, 0x00, 0x00, 0x00, 0x02, 0x00, 0x00, 0x00, 0xff, 0xff, 0xff, 0xff, 
0x08, 0x00, 0x00, 0x00, 0xd8, 0xe3, 0xff, 0xff, 0x2b, 0x00, 0x00, 0x00, 
0x73, 0x65, 0x71, 0x75, 0x65, 0x6e, 0x74, 0x69, 0x61, 0x6c, 0x5f, 0x31, 
0x2f, 0x6c, 0x73, 0x74, 0x6d, 0x5f, 0x31, 0x2f, 0x77, 0x68, 0x69, 0x6c, 
0x65, 0x2f, 0x6c, 0x73, 0x74, 0x6d, 0x5f, 0x63, 0x65, 0x6c, 0x6c, 0x5f, 
0x31, 0x2f, 0x6d, 0x75, 0x6c, 0x5f, 0x31, 0x00, 0x02, 0x00, 0x00, 0x00, 
0x01, 0x00, 0x00, 0x00, 0x08, 0x00, 0x00, 0x00, 0x4a, 0xe5, 0xff, 0xff, 
0x00, 0x00, 0x00, 0x01, 0x14, 0x00, 0x00, 0x00, 0x1c, 0x00, 0x00, 0x00, 
0x1c, 0x00, 0x00, 0x00, 0x44, 0x00, 0x00, 0x00, 0x44, 0x00, 0x00, 0x00, 
0x02, 0x00, 0x00, 0x00, 0xff, 0xff, 0xff, 0xff, 0x08, 0x00, 0x00, 0x00, 
0x40, 0xe4, 0xff, 0xff, 0x2a, 0x00, 0x00, 0x00, 0x73, 0x65, 0x71, 0x75, 
0x65, 0x6e, 0x74, 0x69, 0x61, 0x6c, 0x5f, 0x31, 0x2f, 0x6c, 0x73, 0x74, 
0x6d, 0x5f, 0x31, 0x2f, 0x77, 0x68, 0x69, 0x6c, 0x65, 0x2f, 0x6c, 0x73, 
0x74, 0x6d, 0x5f, 0x63, 0x65, 0x6c, 0x6c, 0x5f, 0x31, 0x2f, 0x54, 0x61, 
0x6e, 0x68, 0x00, 0x00, 0x02, 0x00, 0x00, 0x00, 0x01, 0x00, 0x00, 0x00, 
0x08, 0x00, 0x00, 0x00, 0xb2, 0xe5, 0xff, 0xff, 0x00, 0x00, 0x00, 0x01, 
0x14, 0x00, 0x00, 0x00, 0x1c, 0x00, 0x00, 0x00, 0x1c, 0x00, 0x00, 0x00, 
0x43, 0x00, 0x00, 0x00, 0x48, 0x00, 0x00, 0x00, 0x02, 0x00, 0x00, 0x00, 
0xff, 0xff, 0xff, 0xff, 0x08, 0x00, 0x00, 0x00, 0xa8, 0xe4, 0xff, 0xff, 
0x2f, 0x00, 0x00, 0x00, 0x73, 0x65, 0x71, 0x75, 0x65, 0x6e, 0x74, 0x69, 
0x61, 0x6c, 0x5f, 0x31, 0x2f, 0x6c, 0x73, 0x74, 0x6d, 0x5f, 0x31, 0x2f, 
0x77, 0x68, 0x69, 0x6c, 0x65, 0x2f, 0x6c, 0x73, 0x74, 0x6d, 0x5f, 0x63, 
0x65, 0x6c, 0x6c, 0x5f, 0x31, 0x2f, 0x53, 0x69, 0x67, 0x6d, 0x6f, 0x69, 
0x64, 0x5f, 0x32, 0x00, 0x02, 0x00, 0x00, 0x00, 0x01, 0x00, 0x00, 0x00, 
0x08, 0x00, 0x00, 0x00, 0x1e, 0xe6, 0xff, 0xff, 0x00, 0x00, 0x00, 0x01, 
0x14, 0x00, 0x00, 0x00, 0x1c, 0x00, 0x00, 0x00, 0x1c, 0x00, 0x00, 0x00, 
0x42, 0x00, 0x00, 0x00, 0x44, 0x00, 0x00, 0x00, 0x02, 0x00, 0x00, 0x00, 
0xff, 0xff, 0xff, 0xff, 0x08, 0x00, 0x00, 0x00, 0x14, 0xe5, 0xff, 0xff, 
0x29, 0x00, 0x00, 0x00, 0x73, 0x65, 0x71, 0x75, 0x65, 0x6e, 0x74, 0x69, 
0x61, 0x6c, 0x5f, 0x31, 0x2f, 0x6c, 0x73, 0x74, 0x6d, 0x5f, 0x31, 0x2f, 
0x77, 0x68, 0x69, 0x6c, 0x65, 0x2f, 0x6c, 0x73, 0x74, 0x6d, 0x5f, 0x63, 
0x65, 0x6c, 0x6c, 0x5f, 0x31, 0x2f, 0x6d, 0x75, 0x6c, 0x00, 0x00, 0x00, 
0x02, 0x00, 0x00, 0x00, 0x01, 0x00, 0x00, 0x00, 0x08, 0x00, 0x00, 0x00, 
0x86, 0xe6, 0xff, 0xff, 0x00, 0x00, 0x00, 0x01, 0x14, 0x00, 0x00, 0x00, 
0x1c, 0x00, 0x00, 0x00, 0x1c, 0x00, 0x00, 0x00, 0x41, 0x00, 0x00, 0x00, 
0x48, 0x00, 0x00, 0x00, 0x02, 0x00, 0x00, 0x00, 0xff, 0xff, 0xff, 0xff, 
0x08, 0x00, 0x00, 0x00, 0x7c, 0xe5, 0xff, 0xff, 0x2f, 0x00, 0x00, 0x00, 
0x73, 0x65, 0x71, 0x75, 0x65, 0x6e, 0x74, 0x69, 0x61, 0x6c, 0x5f, 0x31, 
0x2f, 0x6c, 0x73, 0x74, 0x6d, 0x5f, 0x31, 0x2f, 0x77, 0x68, 0x69, 0x6c, 
0x65, 0x2f, 0x6c, 0x73, 0x74, 0x6d, 0x5f, 0x63, 0x65, 0x6c, 0x6c, 0x5f, 
0x31, 0x2f, 0x53, 0x69, 0x67, 0x6d, 0x6f, 0x69, 0x64, 0x5f, 0x31, 0x00, 
0x02, 0x00, 0x00, 0x00, 0x01, 0x00, 0x00, 0x00, 0x08, 0x00, 0x00, 0x00, 
0xf2, 0xe6, 0xff, 0xff, 0x00, 0x00, 0x00, 0x01, 0x14, 0x00, 0x00, 0x00, 
0x1c, 0x00, 0x00, 0x00, 0x1c, 0x00, 0x00, 0x00, 0x40, 0x00, 0x00, 0x00, 
0x48, 0x00, 0x00, 0x00, 0x02, 0x00, 0x00, 0x00, 0xff, 0xff, 0xff, 0xff, 
0x08, 0x00, 0x00, 0x00, 0xe8, 0xe5, 0xff, 0xff, 0x2d, 0x00, 0x00, 0x00, 
0x73, 0x65, 0x71, 0x75, 0x65, 0x6e, 0x74, 0x69, 0x61, 0x6c, 0x5f, 0x31, 
0x2f, 0x6c, 0x73, 0x74, 0x6d, 0x5f, 0x31, 0x2f, 0x77, 0x68, 0x69, 0x6c, 
0x65, 0x2f, 0x6c, 0x73, 0x74, 0x6d, 0x5f, 0x63, 0x65, 0x6c, 0x6c, 0x5f, 
0x31, 0x2f, 0x53, 0x69, 0x67, 0x6d, 0x6f, 0x69, 0x64, 0x00, 0x00, 0x00, 
0x02, 0x00, 0x00, 0x00, 0x01, 0x00, 0x00, 0x00, 0x08, 0x00, 0x00, 0x00, 
0x5e, 0xe7, 0xff, 0xff, 0x00, 0x00, 0x00, 0x01, 0x14, 0x00, 0x00, 0x00, 
0x1c, 0x00, 0x00, 0x00, 0x1c, 0x00, 0x00, 0x00, 0x3f, 0x00, 0x00, 0x00, 
0x48, 0x00, 0x00, 0x00, 0x02, 0x00, 0x00, 0x00, 0xff, 0xff, 0xff, 0xff, 
0x08, 0x00, 0x00, 0x00, 0x54, 0xe6, 0xff, 0xff, 0x2c, 0x00, 0x00, 0x00, 
0x73, 0x65, 0x71, 0x75, 0x65, 0x6e, 0x74, 0x69, 0x61, 0x6c, 0x5f, 0x31, 
0x2f, 0x6c, 0x73, 0x74, 0x6d, 0x5f, 0x31, 0x2f, 0x77, 0x68, 0x69, 0x6c, 
0x65, 0x2f, 0x6c, 0x73, 0x74, 0x6d, 0x5f, 0x63, 0x65, 0x6c, 0x6c, 0x5f, 
0x31, 0x2f, 0x73, 0x70, 0x6c, 0x69, 0x74, 0x33, 0x00, 0x00, 0x00, 0x00, 
0x02, 0x00, 0x00, 0x00, 0x01, 0x00, 0x00, 0x00, 0x08, 0x00, 0x00, 0x00, 
0xca, 0xe7, 0xff, 0xff, 0x00, 0x00, 0x00, 0x01, 0x14, 0x00, 0x00, 0x00, 
0x1c, 0x00, 0x00, 0x00, 0x1c, 0x00, 0x00, 0x00, 0x3e, 0x00, 0x00, 0x00, 
0x48, 0x00, 0x00, 0x00, 0x02, 0x00, 0x00, 0x00, 0xff, 0xff, 0xff, 0xff, 
0x08, 0x00, 0x00, 0x00, 0xc0, 0xe6, 0xff, 0xff, 0x2c, 0x00, 0x00, 0x00, 
0x73, 0x65, 0x71, 0x75, 0x65, 0x6e, 0x74, 0x69, 0x61, 0x6c, 0x5f, 0x31, 
0x2f, 0x6c, 0x73, 0x74, 0x6d, 0x5f, 0x31, 0x2f, 0x77, 0x68, 0x69, 0x6c, 
0x65, 0x2f, 0x6c, 0x73, 0x74, 0x6d, 0x5f, 0x63, 0x65, 0x6c, 0x6c, 0x5f, 
0x31, 0x2f, 0x73, 0x70, 0x6c, 0x69, 0x74, 0x32, 0x00, 0x00, 0x00, 0x00, 
0x02, 0x00, 0x00, 0x00, 0x01, 0x00, 0x00, 0x00, 0x08, 0x00, 0x00, 0x00, 
0x36, 0xe8, 0xff, 0xff, 0x00, 0x00, 0x00, 0x01, 0x14, 0x00, 0x00, 0x00, 
0x1c, 0x00, 0x00, 0x00, 0x1c, 0x00, 0x00, 0x00, 0x3d, 0x00, 0x00, 0x00, 
0x48, 0x00, 0x00, 0x00, 0x02, 0x00, 0x00, 0x00, 0xff, 0xff, 0xff, 0xff, 
0x08, 0x00, 0x00, 0x00, 0x2c, 0xe7, 0xff, 0xff, 0x2c, 0x00, 0x00, 0x00, 
0x73, 0x65, 0x71, 0x75, 0x65, 0x6e, 0x74, 0x69, 0x61, 0x6c, 0x5f, 0x31, 
0x2f, 0x6c, 0x73, 0x74, 0x6d, 0x5f, 0x31, 0x2f, 0x77, 0x68, 0x69, 0x6c, 
0x65, 0x2f, 0x6c, 0x73, 0x74, 0x6d, 0x5f, 0x63, 0x65, 0x6c, 0x6c, 0x5f, 
0x31, 0x2f, 0x73, 0x70, 0x6c, 0x69, 0x74, 0x31, 0x00, 0x00, 0x00, 0x00, 
0x02, 0x00, 0x00, 0x00, 0x01, 0x00, 0x00, 0x00, 0x08, 0x00, 0x00, 0x00, 
0xa2, 0xe8, 0xff, 0xff, 0x00, 0x00, 0x00, 0x01, 0x14, 0x00, 0x00, 0x00, 
0x1c, 0x00, 0x00, 0x00, 0x1c, 0x00, 0x00, 0x00, 0x3c, 0x00, 0x00, 0x00, 
0x44, 0x00, 0x00, 0x00, 0x02, 0x00, 0x00, 0x00, 0xff, 0xff, 0xff, 0xff, 
0x08, 0x00, 0x00, 0x00, 0x98, 0xe7, 0xff, 0xff, 0x2b, 0x00, 0x00, 0x00, 
0x73, 0x65, 0x71, 0x75, 0x65, 0x6e, 0x74, 0x69, 0x61, 0x6c, 0x5f, 0x31, 
0x2f, 0x6c, 0x73, 0x74, 0x6d, 0x5f, 0x31, 0x2f, 0x77, 0x68, 0x69, 0x6c, 
0x65, 0x2f, 0x6c, 0x73, 0x74, 0x6d, 0x5f, 0x63, 0x65, 0x6c, 0x6c, 0x5f, 
0x31, 0x2f, 0x73, 0x70, 0x6c, 0x69, 0x74, 0x00, 0x02, 0x00, 0x00, 0x00, 
0x01, 0x00, 0x00, 0x00, 0x08, 0x00, 0x00, 0x00, 0x0a, 0xe9, 0xff, 0xff, 
0x00, 0x00, 0x00, 0x01, 0x14, 0x00, 0x00, 0x00, 0x1c, 0x00, 0x00, 0x00, 
0x1c, 0x00, 0x00, 0x00, 0x3b, 0x00, 0x00, 0x00, 0x44, 0x00, 0x00, 0x00, 
0x02, 0x00, 0x00, 0x00, 0xff, 0xff, 0xff, 0xff, 0x20, 0x00, 0x00, 0x00, 
0x00, 0xe8, 0xff, 0xff, 0x2b, 0x00, 0x00, 0x00, 0x73, 0x65, 0x71, 0x75, 
0x65, 0x6e, 0x74, 0x69, 0x61, 0x6c, 0x5f, 0x31, 0x2f, 0x6c, 0x73, 0x74, 
0x6d, 0x5f, 0x31, 0x2f, 0x77, 0x68, 0x69, 0x6c, 0x65, 0x2f, 0x6c, 0x73, 
0x74, 0x6d, 0x5f, 0x63, 0x65, 0x6c, 0x6c, 0x5f, 0x31, 0x2f, 0x61, 0x64, 
0x64, 0x5f, 0x31, 0x00, 0x02, 0x00, 0x00, 0x00, 0x01, 0x00, 0x00, 0x00, 
0x20, 0x00, 0x00, 0x00, 0x72, 0xe9, 0xff, 0xff, 0x00, 0x00, 0x00, 0x01, 
0x14, 0x00, 0x00, 0x00, 0x1c, 0x00, 0x00, 0x00, 0x1c, 0x00, 0x00, 0x00, 
0x3a, 0x00, 0x00, 0x00, 0x44, 0x00, 0x00, 0x00, 0x02, 0x00, 0x00, 0x00, 
0xff, 0xff, 0xff, 0xff, 0x20, 0x00, 0x00, 0x00, 0x68, 0xe8, 0xff, 0xff, 
0x29, 0x00, 0x00, 0x00, 0x73, 0x65, 0x71, 0x75, 0x65, 0x6e, 0x74, 0x69, 
0x61, 0x6c, 0x5f, 0x31, 0x2f, 0x6c, 0x73, 0x74, 0x6d, 0x5f, 0x31, 0x2f, 
0x77, 0x68, 0x69, 0x6c, 0x65, 0x2f, 0x6c, 0x73, 0x74, 0x6d, 0x5f, 0x63, 
0x65, 0x6c, 0x6c, 0x5f, 0x31, 0x2f, 0x61, 0x64, 0x64, 0x00, 0x00, 0x00, 
0x02, 0x00, 0x00, 0x00, 0x01, 0x00, 0x00, 0x00, 0x20, 0x00, 0x00, 0x00, 
0xda, 0xe9, 0xff, 0xff, 0x00, 0x00, 0x00, 0x01, 0x14, 0x00, 0x00, 0x00, 
0x1c, 0x00, 0x00, 0x00, 0x1c, 0x00, 0x00, 0x00, 0x39, 0x00, 0x00, 0x00, 
0x48, 0x00, 0x00, 0x00, 0x02, 0x00, 0x00, 0x00, 0xff, 0xff, 0xff, 0xff, 
0x20, 0x00, 0x00, 0x00, 0xd0, 0xe8, 0xff, 0xff, 0x2c, 0x00, 0x00, 0x00, 
0x73, 0x65, 0x71, 0x75, 0x65, 0x6e, 0x74, 0x69, 0x61, 0x6c, 0x5f, 0x31, 
0x2f, 0x6c, 0x73, 0x74, 0x6d, 0x5f, 0x31, 0x2f, 0x77, 0x68, 0x69, 0x6c, 
0x65, 0x2f, 0x6c, 0x73, 0x74, 0x6d, 0x5f, 0x63, 0x65, 0x6c, 0x6c, 0x5f, 
0x31, 0x2f, 0x4d, 0x61, 0x74, 0x4d, 0x75, 0x6c, 0x00, 0x00, 0x00, 0x00, 
0x02, 0x00, 0x00, 0x00, 0x01, 0x00, 0x00, 0x00, 0x20, 0x00, 0x00, 0x00, 
0x46, 0xea, 0xff, 0xff, 0x00, 0x00, 0x00, 0x01, 0x14, 0x00, 0x00, 0x00, 
0x1c, 0x00, 0x00, 0x00, 0x1c, 0x00, 0x00, 0x00, 0x38, 0x00, 0x00, 0x00, 
0x58, 0x00, 0x00, 0x00, 0x02, 0x00, 0x00, 0x00, 0xff, 0xff, 0xff, 0xff, 
0x06, 0x00, 0x00, 0x00, 0x3c, 0xe9, 0xff, 0xff, 0x3e, 0x00, 0x00, 0x00, 
0x73, 0x65, 0x71, 0x75, 0x65, 0x6e, 0x74, 0x69, 0x61, 0x6c, 0x5f, 0x31, 
0x2f, 0x6c, 0x73, 0x74, 0x6d, 0x5f, 0x31, 0x2f, 0x77, 0x68, 0x69, 0x6c, 
0x65, 0x2f, 0x54, 0x65, 0x6e, 0x73, 0x6f, 0x72, 0x41, 0x72, 0x72, 0x61, 
0x79, 0x56, 0x32, 0x52, 0x65, 0x61, 0x64, 0x2f, 0x54, 0x65, 0x6e, 0x73, 
0x6f, 0x72, 0x4c, 0x69, 0x73, 0x74, 0x47, 0x65, 0x74, 0x49, 0x74, 0x65, 
0x6d, 0x3b, 0x00, 0x00, 0x02, 0x00, 0x00, 0x00, 0x01, 0x00, 0x00, 0x00, 
0x06, 0x00, 0x00, 0x00, 0x16, 0xeb, 0xff, 0xff, 0x00, 0x00, 0x00, 0x01, 
0x14, 0x00, 0x00, 0x00, 0x14, 0x00, 0x00, 0x00, 0x37, 0x00, 0x00, 0x00, 
0x00, 0x00, 0x00, 0x02, 0x2c, 0x00, 0x00, 0x00, 0xac, 0xe9, 0xff, 0xff, 
0x1f, 0x00, 0x00, 0x00, 0x73, 0x65, 0x71, 0x75, 0x65, 0x6e, 0x74, 0x69, 
0x61, 0x6c, 0x5f, 0x31, 0x2f, 0x6c, 0x73, 0x74, 0x6d, 0x5f, 0x31, 0x2f, 
0x77, 0x68, 0x69, 0x6c, 0x65, 0x2f, 0x61, 0x64, 0x64, 0x5f, 0x31, 0x00, 
0x00, 0x00, 0x00, 0x00, 0x0a, 0xeb, 0xff, 0xff, 0x00, 0x00, 0x00, 0x01, 
0x14, 0x00, 0x00, 0x00, 0x1c, 0x00, 0x00, 0x00, 0x1c, 0x00, 0x00, 0x00, 
0x36, 0x00, 0x00, 0x00, 0x48, 0x00, 0x00, 0x00, 0x02, 0x00, 0x00, 0x00, 
0xff, 0xff, 0xff, 0xff, 0x20, 0x00, 0x00, 0x00, 0x00, 0xea, 0xff, 0xff, 
0x2e, 0x00, 0x00, 0x00, 0x73, 0x65, 0x71, 0x75, 0x65, 0x6e, 0x74, 0x69, 
0x61, 0x6c, 0x5f, 0x31, 0x2f, 0x6c, 0x73, 0x74, 0x6d, 0x5f, 0x31, 0x2f, 
0x77, 0x68, 0x69, 0x6c, 0x65, 0x2f, 0x6c, 0x73, 0x74, 0x6d, 0x5f, 0x63, 
0x65, 0x6c, 0x6c, 0x5f, 0x31, 0x2f, 0x4d, 0x61, 0x74, 0x4d, 0x75, 0x6c, 
0x5f, 0x31, 0x00, 0x00, 0x02, 0x00, 0x00, 0x00, 0x01, 0x00, 0x00, 0x00, 
0x20, 0x00, 0x00, 0x00, 0xca, 0xeb, 0xff, 0xff, 0x00, 0x00, 0x00, 0x01, 
0x14, 0x00, 0x00, 0x00, 0x14, 0x00, 0x00, 0x00, 0x35, 0x00, 0x00, 0x00, 
0x00, 0x00, 0x00, 0x02, 0x2c, 0x00, 0x00, 0x00, 0x60, 0xea, 0xff, 0xff, 
0x1d, 0x00, 0x00, 0x00, 0x73, 0x65, 0x71, 0x75, 0x65, 0x6e, 0x74, 0x69, 
0x61, 0x6c, 0x5f, 0x31, 0x2f, 0x6c, 0x73, 0x74, 0x6d, 0x5f, 0x31, 0x2f, 
0x77, 0x68, 0x69, 0x6c, 0x65, 0x2f, 0x61, 0x64, 0x64, 0x00, 0x00, 0x00, 
0x00, 0x00, 0x00, 0x00, 0xde, 0xec, 0xff, 0xff, 0x00, 0x00, 0x00, 0x01, 
0x10, 0x00, 0x00, 0x00, 0x10, 0x00, 0x00, 0x00, 0x34, 0x00, 0x00, 0x00, 
0x48, 0x00, 0x00, 0x00, 0xa4, 0xea, 0xff, 0xff, 0x3a, 0x00, 0x00, 0x00, 
0x73, 0x65, 0x71, 0x75, 0x65, 0x6e, 0x74, 0x69, 0x61, 0x6c, 0x5f, 0x31, 
0x2f, 0x6c, 0x73, 0x74, 0x6d, 0x5f, 0x31, 0x2f, 0x77, 0x68, 0x69, 0x6c, 
0x65, 0x2f, 0x6c, 0x73, 0x74, 0x6d, 0x5f, 0x63, 0x65, 0x6c, 0x6c, 0x5f, 
0x31, 0x2f, 0x61, 0x64, 0x64, 0x5f, 0x31, 0x2f, 0x52, 0x65, 0x61, 0x64, 
0x56, 0x61, 0x72, 0x69, 0x61, 0x62, 0x6c, 0x65, 0x4f, 0x70, 0x00, 0x00, 
0x01, 0x00, 0x00, 0x00, 0x20, 0x00, 0x00, 0x00, 0x42, 0xed, 0xff, 0xff, 
0x00, 0x00, 0x00, 0x01, 0x10, 0x00, 0x00, 0x00, 0x10, 0x00, 0x00, 0x00, 
0x33, 0x00, 0x00, 0x00, 0x20, 0x00, 0x00, 0x00, 0x08, 0xeb, 0xff, 0xff, 
0x10, 0x00, 0x00, 0x00, 0x61, 0x72, 0x69, 0x74, 0x68, 0x2e, 0x63, 0x6f, 
0x6e, 0x73, 0x74, 0x61, 0x6e, 0x74, 0x31, 0x38, 0x00, 0x00, 0x00, 0x00, 
0x02, 0x00, 0x00, 0x00, 0x20, 0x00, 0x00, 0x00, 0x08, 0x00, 0x00, 0x00, 
0x82, 0xed, 0xff, 0xff, 0x00, 0x00, 0x00, 0x01, 0x10, 0x00, 0x00, 0x00, 
0x10, 0x00, 0x00, 0x00, 0x32, 0x00, 0x00, 0x00, 0x20, 0x00, 0x00, 0x00, 
0x48, 0xeb, 0xff, 0xff, 0x10, 0x00, 0x00, 0x00, 0x61, 0x72, 0x69, 0x74, 
0x68, 0x2e, 0x63, 0x6f, 0x6e, 0x73, 0x74, 0x61, 0x6e, 0x74, 0x31, 0x37, 
0x00, 0x00, 0x00, 0x00, 0x02, 0x00, 0x00, 0x00, 0x20, 0x00, 0x00, 0x00, 
0x06, 0x00, 0x00, 0x00, 0xf6, 0xec, 0xff, 0xff, 0x00, 0x00, 0x00, 0x01, 
0x14, 0x00, 0x00, 0x00, 0x14, 0x00, 0x00, 0x00, 0x0b, 0x00, 0x00, 0x00, 
0x00, 0x00, 0x00, 0x02, 0x20, 0x00, 0x00, 0x00, 0x8c, 0xeb, 0xff, 0xff, 
0x10, 0x00, 0x00, 0x00, 0x61, 0x72, 0x69, 0x74, 0x68, 0x2e, 0x63, 0x6f, 
0x6e, 0x73, 0x74, 0x61, 0x6e, 0x74, 0x31, 0x36, 0x00, 0x00, 0x00, 0x00, 
0x00, 0x00, 0x00, 0x00, 0x32, 0xed, 0xff, 0xff, 0x00, 0x00, 0x00, 0x01, 
0x14, 0x00, 0x00, 0x00, 0x14, 0x00, 0x00, 0x00, 0x09, 0x00, 0x00, 0x00, 
0x00, 0x00, 0x00, 0x02, 0x20, 0x00, 0x00, 0x00, 0xc8, 0xeb, 0xff, 0xff, 
0x10, 0x00, 0x00, 0x00, 0x61, 0x72, 0x69, 0x74, 0x68, 0x2e, 0x63, 0x6f, 
0x6e, 0x73, 0x74, 0x61, 0x6e, 0x74, 0x31, 0x35, 0x00, 0x00, 0x00, 0x00, 
0x00, 0x00, 0x00, 0x00, 0x1a, 0xed, 0xff, 0xff, 0x00, 0x00, 0x00, 0x01, 
0x14, 0x00, 0x00, 0x00, 0x20, 0x00, 0x00, 0x00, 0x20, 0x00, 0x00, 0x00, 
0x2f, 0x00, 0x00, 0x00, 0x24, 0x00, 0x00, 0x00, 0x03, 0x00, 0x00, 0x00, 
0x0a, 0x00, 0x00, 0x00, 0xff, 0xff, 0xff, 0xff, 0x06, 0x00, 0x00, 0x00, 
0x14, 0xec, 0xff, 0xff, 0x04, 0x00, 0x00, 0x00, 0x61, 0x72, 0x67, 0x35, 
0x00, 0x00, 0x00, 0x00, 0x03, 0x00, 0x00, 0x00, 0x0a, 0x00, 0x00, 0x00, 
0x01, 0x00, 0x00, 0x00, 0x06, 0x00, 0x00, 0x00, 0x66, 0xed, 0xff, 0xff, 
0x00, 0x00, 0x00, 0x01, 0x14, 0x00, 0x00, 0x00, 0x1c, 0x00, 0x00, 0x00, 
0x1c, 0x00, 0x00, 0x00, 0x2e, 0x00, 0x00, 0x00, 0x20, 0x00, 0x00, 0x00, 
0x02, 0x00, 0x00, 0x00, 0xff, 0xff, 0xff, 0xff, 0x08, 0x00, 0x00, 0x00, 
0x5c, 0xec, 0xff, 0xff, 0x04, 0x00, 0x00, 0x00, 0x61, 0x72, 0x67, 0x34, 
0x00, 0x00, 0x00, 0x00, 0x02, 0x00, 0x00, 0x00, 0x01, 0x00, 0x00, 0x00, 
0x08, 0x00, 0x00, 0x00, 0xaa, 0xed, 0xff, 0xff, 0x00, 0x00, 0x00, 0x01, 
0x14, 0x00, 0x00, 0x00, 0x1c, 0x00, 0x00, 0x00, 0x1c, 0x00, 0x00, 0x00, 
0x2d, 0x00, 0x00, 0x00, 0x20, 0x00, 0x00, 0x00, 0x02, 0x00, 0x00, 0x00, 
0xff, 0xff, 0xff, 0xff, 0x08, 0x00, 0x00, 0x00, 0xa0, 0xec, 0xff, 0xff, 
0x04, 0x00, 0x00, 0x00, 0x61, 0x72, 0x67, 0x33, 0x00, 0x00, 0x00, 0x00, 
0x02, 0x00, 0x00, 0x00, 0x01, 0x00, 0x00, 0x00, 0x08, 0x00, 0x00, 0x00, 
0x38, 0xf2, 0xff, 0xff, 0x1c, 0x00, 0x00, 0x00, 0x00, 0x00, 0x00, 0x01, 
0x34, 0x00, 0x00, 0x00, 0x34, 0x00, 0x00, 0x00, 0x2c, 0x00, 0x00, 0x00, 
0x00, 0x00, 0x00, 0x0e, 0x34, 0x00, 0x00, 0x00, 0x01, 0x00, 0x00, 0x00, 
0x04, 0x00, 0x00, 0x00, 0x1e, 0xf2, 0xff, 0xff, 0x00, 0x00, 0x00, 0x01, 
0x04, 0x00, 0x00, 0x00, 0x02, 0x00, 0x00, 0x00, 0x00, 0x00, 0x00, 0x00, 
0x08, 0x00, 0x00, 0x00, 0xfc, 0xec, 0xff, 0xff, 0x04, 0x00, 0x00, 0x00, 
0x61, 0x72, 0x67, 0x32, 0x00, 0x00, 0x00, 0x00, 0x00, 0x00, 0x00, 0x00, 
0x96, 0xee, 0xff, 0xff, 0x00, 0x00, 0x00, 0x01, 0x14, 0x00, 0x00, 0x00, 
0x14, 0x00, 0x00, 0x00, 0x2b, 0x00, 0x00, 0x00, 0x00, 0x00, 0x00, 0x02, 
0x14, 0x00, 0x00, 0x00, 0x2c, 0xed, 0xff, 0xff, 0x04, 0x00, 0x00, 0x00, 
0x61, 0x72, 0x67, 0x31, 0x00, 0x00, 0x00, 0x00, 0x00, 0x00, 0x00, 0x00, 
0xc6, 0xee, 0xff, 0xff, 0x00, 0x00, 0x00, 0x01, 0x14, 0x00, 0x00, 0x00, 
0x14, 0x00, 0x00, 0x00, 0x2a, 0x00, 0x00, 0x00, 0x00, 0x00, 0x00, 0x02, 
0x14, 0x00, 0x00, 0x00, 0x5c, 0xed, 0xff, 0xff, 0x04, 0x00, 0x00, 0x00, 
0x61, 0x72, 0x67, 0x30, 0x00, 0x00, 0x00, 0x00, 0x00, 0x00, 0x00, 0x00, 
0x4e, 0xfc, 0xff, 0xff, 0x14, 0x00, 0x00, 0x00, 0x34, 0x00, 0x00, 0x00, 
0xac, 0x00, 0x00, 0x00, 0xb0, 0x00, 0x00, 0x00, 0xc8, 0x00, 0x00, 0x00, 
0x1e, 0x00, 0x00, 0x00, 0x73, 0x65, 0x71, 0x75, 0x65, 0x6e, 0x74, 0x69, 
0x61, 0x6c, 0x5f, 0x31, 0x2f, 0x6c, 0x73, 0x74, 0x6d, 0x5f, 0x31, 0x2f, 
0x77, 0x68, 0x69, 0x6c, 0x65, 0x5f, 0x63, 0x6f, 0x6e, 0x64, 0x00, 0x00, 
0x03, 0x00, 0x00, 0x00, 0x54, 0x00, 0x00, 0x00, 0x2c, 0x00, 0x00, 0x00, 
0x04, 0x00, 0x00, 0x00, 0x32, 0xfa, 0xff, 0xff, 0x0c, 0x00, 0x00, 0x00, 
0x10, 0x00, 0x00, 0x00, 0x0b, 0x00, 0x00, 0x00, 0x01, 0x00, 0x00, 0x00, 
0x09, 0x00, 0x00, 0x00, 0x02, 0x00, 0x00, 0x00, 0x08, 0x00, 0x00, 0x00, 
0x07, 0x00, 0x00, 0x00, 0x56, 0xfa, 0xff, 0xff, 0x0c, 0x00, 0x00, 0x00, 
0x10, 0x00, 0x00, 0x00, 0x0a, 0x00, 0x00, 0x00, 0x01, 0x00, 0x00, 0x00, 
0x08, 0x00, 0x00, 0x00, 0x02, 0x00, 0x00, 0x00, 0x00, 0x00, 0x00, 0x00, 
0x06, 0x00, 0x00, 0x00, 0x7a, 0xfa, 0xff, 0xff, 0x0c, 0x00, 0x00, 0x00, 
0x10, 0x00, 0x00, 0x00, 0x0a, 0x00, 0x00, 0x00, 0x01, 0x00, 0x00, 0x00, 
0x07, 0x00, 0x00, 0x00, 0x02, 0x00, 0x00, 0x00, 0x01, 0x00, 0x00, 0x00, 
0x06, 0x00, 0x00, 0x00, 0x01, 0x00, 0x00, 0x00, 0x09, 0x00, 0x00, 0x00, 
0x06, 0x00, 0x00, 0x00, 0x00, 0x00, 0x00, 0x00, 0x01, 0x00, 0x00, 0x00, 
0x02, 0x00, 0x00, 0x00, 0x03, 0x00, 0x00, 0x00, 0x04, 0x00, 0x00, 0x00, 
0x05, 0x00, 0x00, 0x00, 0x0a, 0x00, 0x00, 0x00, 0xa0, 0x02, 0x00, 0x00, 
0x6c, 0x02, 0x00, 0x00, 0x14, 0x02, 0x00, 0x00, 0xcc, 0x01, 0x00, 0x00, 
0x84, 0x01, 0x00, 0x00, 0x34, 0x01, 0x00, 0x00, 0xf4, 0x00, 0x00, 0x00, 
0xa8, 0x00, 0x00, 0x00, 0x58, 0x00, 0x00, 0x00, 0x04, 0x00, 0x00, 0x00, 
0xfe, 0xef, 0xff, 0xff, 0x00, 0x00, 0x00, 0x01, 0x14, 0x00, 0x00, 0x00, 
0x14, 0x00, 0x00, 0x00, 0x29, 0x00, 0x00, 0x00, 0x00, 0x00, 0x00, 0x06, 
0x34, 0x00, 0x00, 0x00, 0x94, 0xee, 0xff, 0xff, 0x24, 0x00, 0x00, 0x00, 
0x73, 0x65, 0x71, 0x75, 0x65, 0x6e, 0x74, 0x69, 0x61, 0x6c, 0x5f, 0x31, 
0x2f, 0x6c, 0x73, 0x74, 0x6d, 0x5f, 0x31, 0x2f, 0x77, 0x68, 0x69, 0x6c, 
0x65, 0x2f, 0x4c, 0x6f, 0x67, 0x69, 0x63, 0x61, 0x6c, 0x41, 0x6e, 0x64, 
0x00, 0x00, 0x00, 0x00, 0x00, 0x00, 0x00, 0x00, 0x4e, 0xf0, 0xff, 0xff, 
0x00, 0x00, 0x00, 0x01, 0x14, 0x00, 0x00, 0x00, 0x14, 0x00, 0x00, 0x00, 
0x28, 0x00, 0x00, 0x00, 0x00, 0x00, 0x00, 0x06, 0x30, 0x00, 0x00, 0x00, 
0xe4, 0xee, 0xff, 0xff, 0x20, 0x00, 0x00, 0x00, 0x73, 0x65, 0x71, 0x75, 
0x65, 0x6e, 0x74, 0x69, 0x61, 0x6c, 0x5f, 0x31, 0x2f, 0x6c, 0x73, 0x74, 
0x6d, 0x5f, 0x31, 0x2f, 0x77, 0x68, 0x69, 0x6c, 0x65, 0x2f, 0x4c, 0x65, 
0x73, 0x73, 0x5f, 0x31, 0x00, 0x00, 0x00, 0x00, 0x00, 0x00, 0x00, 0x00, 
0x9a, 0xf0, 0xff, 0xff, 0x00, 0x00, 0x00, 0x01, 0x14, 0x00, 0x00, 0x00, 
0x14, 0x00, 0x00, 0x00, 0x27, 0x00, 0x00, 0x00, 0x00, 0x00, 0x00, 0x06, 
0x2c, 0x00, 0x00, 0x00, 0x30, 0xef, 0xff, 0xff, 0x1e, 0x00, 0x00, 0x00, 
0x73, 0x65, 0x71, 0x75, 0x65, 0x6e, 0x74, 0x69, 0x61, 0x6c, 0x5f, 0x31, 
0x2f, 0x6c, 0x73, 0x74, 0x6d, 0x5f, 0x31, 0x2f, 0x77, 0x68, 0x69, 0x6c, 
0x65, 0x2f, 0x4c, 0x65, 0x73, 0x73, 0x00, 0x00, 0x00, 0x00, 0x00, 0x00, 
0xe2, 0xf0, 0xff, 0xff, 0x00, 0x00, 0x00, 0x01, 0x14, 0x00, 0x00, 0x00, 
0x14, 0x00, 0x00, 0x00, 0x07, 0x00, 0x00, 0x00, 0x00, 0x00, 0x00, 0x02, 
0x20, 0x00, 0x00, 0x00, 0x78, 0xef, 0xff, 0xff, 0x10, 0x00, 0x00, 0x00, 
0x61, 0x72, 0x69, 0x74, 0x68, 0x2e, 0x63, 0x6f, 0x6e, 0x73, 0x74, 0x61, 
0x6e, 0x74, 0x31, 0x34, 0x00, 0x00, 0x00, 0x00, 0x00, 0x00, 0x00, 0x00, 
0xca, 0xf0, 0xff, 0xff, 0x00, 0x00, 0x00, 0x01, 0x14, 0x00, 0x00, 0x00, 
0x20, 0x00, 0x00, 0x00, 0x20, 0x00, 0x00, 0x00, 0x25, 0x00, 0x00, 0x00, 
0x24, 0x00, 0x00, 0x00, 0x03, 0x00, 0x00, 0x00, 0x0a, 0x00, 0x00, 0x00, 
0xff, 0xff, 0xff, 0xff, 0x06, 0x00, 0x00, 0x00, 0xc4, 0xef, 0xff, 0xff, 
0x04, 0x00, 0x00, 0x00, 0x61, 0x72, 0x67, 0x35, 0x00, 0x00, 0x00, 0x00, 
0x03, 0x00, 0x00, 0x00, 0x0a, 0x00, 0x00, 0x00, 0x01, 0x00, 0x00, 0x00, 
0x06, 0x00, 0x00, 0x00, 0x16, 0xf1, 0xff, 0xff, 0x00, 0x00, 0x00, 0x01, 
0x14, 0x00, 0x00, 0x00, 0x1c, 0x00, 0x00, 0x00, 0x1c, 0x00, 0x00, 0x00, 
0x24, 0x00, 0x00, 0x00, 0x20, 0x00, 0x00, 0x00, 0x02, 0x00, 0x00, 0x00, 
0xff, 0xff, 0xff, 0xff, 0x08, 0x00, 0x00, 0x00, 0x0c, 0xf0, 0xff, 0xff, 
0x04, 0x00, 0x00, 0x00, 0x61, 0x72, 0x67, 0x34, 0x00, 0x00, 0x00, 0x00, 
0x02, 0x00, 0x00, 0x00, 0x01, 0x00, 0x00, 0x00, 0x08, 0x00, 0x00, 0x00, 
0x5a, 0xf1, 0xff, 0xff, 0x00, 0x00, 0x00, 0x01, 0x14, 0x00, 0x00, 0x00, 
0x1c, 0x00, 0x00, 0x00, 0x1c, 0x00, 0x00, 0x00, 0x23, 0x00, 0x00, 0x00, 
0x20, 0x00, 0x00, 0x00, 0x02, 0x00, 0x00, 0x00, 0xff, 0xff, 0xff, 0xff, 
0x08, 0x00, 0x00, 0x00, 0x50, 0xf0, 0xff, 0xff, 0x04, 0x00, 0x00, 0x00, 
0x61, 0x72, 0x67, 0x33, 0x00, 0x00, 0x00, 0x00, 0x02, 0x00, 0x00, 0x00, 
0x01, 0x00, 0x00, 0x00, 0x08, 0x00, 0x00, 0x00, 0xe8, 0xf5, 0xff, 0xff, 
0x1c, 0x00, 0x00, 0x00, 0x00, 0x00, 0x00, 0x01, 0x34, 0x00, 0x00, 0x00, 
0x34, 0x00, 0x00, 0x00, 0x22, 0x00, 0x00, 0x00, 0x00, 0x00, 0x00, 0x0e, 
0x34, 0x00, 0x00, 0x00, 0x01, 0x00, 0x00, 0x00, 0x04, 0x00, 0x00, 0x00, 
0xce, 0xf5, 0xff, 0xff, 0x00, 0x00, 0x00, 0x01, 0x04, 0x00, 0x00, 0x00, 
0x02, 0x00, 0x00, 0x00, 0x00, 0x00, 0x00, 0x00, 0x08, 0x00, 0x00, 0x00, 
0xac, 0xf0, 0xff, 0xff, 0x04, 0x00, 0x00, 0x00, 0x61, 0x72, 0x67, 0x32, 
0x00, 0x00, 0x00, 0x00, 0x00, 0x00, 0x00, 0x00, 0x46, 0xf2, 0xff, 0xff, 
0x00, 0x00, 0x00, 0x01, 0x14, 0x00, 0x00, 0x00, 0x14, 0x00, 0x00, 0x00, 
0x21, 0x00, 0x00, 0x00, 0x00, 0x00, 0x00, 0x02, 0x14, 0x00, 0x00, 0x00, 
0xdc, 0xf0, 0xff, 0xff, 0x04, 0x00, 0x00, 0x00, 0x61, 0x72, 0x67, 0x31, 
0x00, 0x00, 0x00, 0x00, 0x00, 0x00, 0x00, 0x00, 0x76, 0xf2, 0xff, 0xff, 
0x00, 0x00, 0x00, 0x01, 0x14, 0x00, 0x00, 0x00, 0x14, 0x00, 0x00, 0x00, 
0x20, 0x00, 0x00, 0x00, 0x00, 0x00, 0x00, 0x02, 0x14, 0x00, 0x00, 0x00, 
0x0c, 0xf1, 0xff, 0xff, 0x04, 0x00, 0x00, 0x00, 0x61, 0x72, 0x67, 0x30, 
0x00, 0x00, 0x00, 0x00, 0x00, 0x00, 0x00, 0x00, 0x00, 0x00, 0x0e, 0x00, 
0x18, 0x00, 0x14, 0x00, 0x10, 0x00, 0x0c, 0x00, 0x08, 0x00, 0x04, 0x00, 
0x0e, 0x00, 0x00, 0x00, 0x14, 0x00, 0x00, 0x00, 0x1c, 0x00, 0x00, 0x00, 
0xb8, 0x03, 0x00, 0x00, 0xbc, 0x03, 0x00, 0x00, 0xc0, 0x03, 0x00, 0x00, 
0x04, 0x00, 0x00, 0x00, 0x6d, 0x61, 0x69, 0x6e, 0x00, 0x00, 0x00, 0x00, 
0x0b, 0x00, 0x00, 0x00, 0x68, 0x03, 0x00, 0x00, 0xc8, 0x02, 0x00, 0x00, 
0x68, 0x02, 0x00, 0x00, 0x30, 0x02, 0x00, 0x00, 0xe4, 0x01, 0x00, 0x00, 
0xbc, 0x01, 0x00, 0x00, 0x54, 0x01, 0x00, 0x00, 0xc8, 0x00, 0x00, 0x00, 
0x70, 0x00, 0x00, 0x00, 0x38, 0x00, 0x00, 0x00, 0x04, 0x00, 0x00, 0x00, 
0xca, 0xfd, 0xff, 0xff, 0x14, 0x00, 0x00, 0x00, 0x00, 0x00, 0x00, 0x09, 
0x14, 0x00, 0x00, 0x00, 0x18, 0x00, 0x00, 0x00, 0x09, 0x00, 0x00, 0x00, 
0x36, 0xfe, 0xff, 0xff, 0x00, 0x00, 0x80, 0x3f, 0x01, 0x00, 0x00, 0x00, 
0x1e, 0x00, 0x00, 0x00, 0x01, 0x00, 0x00, 0x00, 0x1d, 0x00, 0x00, 0x00, 
0xfa, 0xfd, 0xff, 0xff, 0x14, 0x00, 0x00, 0x00, 0x00, 0x00, 0x00, 0x08, 
0x10, 0x00, 0x00, 0x00, 0x14, 0x00, 0x00, 0x00, 0x08, 0x00, 0x00, 0x00, 
0xcc, 0xf1, 0xff, 0xff, 0x01, 0x00, 0x00, 0x00, 0x1d, 0x00, 0x00, 0x00, 
0x03, 0x00, 0x00, 0x00, 0x1c, 0x00, 0x00, 0x00, 0x04, 0x00, 0x00, 0x00, 
0x05, 0x00, 0x00, 0x00, 0x2e, 0xfe, 0xff, 0xff, 0x24, 0x00, 0x00, 0x00, 
0x00, 0x00, 0x00, 0x20, 0x2c, 0x00, 0x00, 0x00, 0x30, 0x00, 0x00, 0x00, 
0x02, 0x00, 0x00, 0x00, 0x00, 0x00, 0x0e, 0x00, 0x10, 0x00, 0x0c, 0x00, 
0x08, 0x00, 0x00, 0x00, 0x00, 0x00, 0x04, 0x00, 0x0e, 0x00, 0x00, 0x00, 
0x01, 0x00, 0x00, 0x00, 0x06, 0x00, 0x00, 0x00, 0x06, 0x00, 0x00, 0x00, 
0x01, 0x00, 0x00, 0x00, 0x1c, 0x00, 0x00, 0x00, 0x04, 0x00, 0x00, 0x00, 
0x1b, 0x00, 0x00, 0x00, 0x03, 0x00, 0x00, 0x00, 0x02, 0x00, 0x00, 0x00, 
0x01, 0x00, 0x00, 0x00, 0x28, 0xfe, 0xff, 0xff, 0x10, 0x00, 0x00, 0x00, 
0x6c, 0x00, 0x00, 0x00, 0x70, 0x00, 0x00, 0x00, 0x07, 0x00, 0x00, 0x00, 
0x5b, 0x00, 0x00, 0x00, 0x0f, 0x54, 0x65, 0x6e, 0x73, 0x6f, 0x72, 0x4c, 
0x69, 0x73, 0x74, 0x53, 0x74, 0x61, 0x63, 0x6b, 0x00, 0x40, 0x12, 0x0f, 
0x54, 0x65, 0x6e, 0x73, 0x6f, 0x72, 0x4c, 0x69, 0x73, 0x74, 0x53, 0x74, 
0x61, 0x63, 0x6b, 0x1a, 0x00, 0x1a, 0x00, 0x2a, 0x12, 0x0a, 0x0c, 0x6e, 
0x75, 0x6d, 0x5f, 0x65, 0x6c, 0x65, 0x6d, 0x65, 0x6e, 0x74, 0x73, 0x12, 
0x02, 0x18, 0x01, 0x2a, 0x13, 0x0a, 0x0d, 0x65, 0x6c, 0x65, 0x6d, 0x65, 
0x6e, 0x74, 0x5f, 0x64, 0x74, 0x79, 0x70, 0x65, 0x12, 0x02, 0x30, 0x01, 
0x32, 0x00, 0x00, 0x02, 0x53, 0x43, 0x14, 0x14, 0x04, 0x28, 0x01, 0x00, 
0x01, 0x00, 0x00, 0x00, 0x1b, 0x00, 0x00, 0x00, 0x02, 0x00, 0x00, 0x00, 
0x17, 0x00, 0x00, 0x00, 0x0d, 0x00, 0x00, 0x00, 0x0a, 0xff, 0xff, 0xff, 
0x1c, 0x00, 0x00, 0x00, 0x00, 0x00, 0x00, 0x5d, 0x20, 0x00, 0x00, 0x00, 
0x38, 0x00, 0x00, 0x00, 0x06, 0x00, 0x00, 0x00, 0x08, 0x00, 0x0c, 0x00, 
0x08, 0x00, 0x04, 0x00, 0x08, 0x00, 0x00, 0x00, 0x02, 0x00, 0x00, 0x00, 
0x01, 0x00, 0x00, 0x00, 0x06, 0x00, 0x00, 0x00, 0x15, 0x00, 0x00, 0x00, 
0x16, 0x00, 0x00, 0x00, 0x17, 0x00, 0x00, 0x00, 0x18, 0x00, 0x00, 0x00, 
0x19, 0x00, 0x00, 0x00, 0x1a, 0x00, 0x00, 0x00, 0x06, 0x00, 0x00, 0x00, 
0x0e, 0x00, 0x00, 0x00, 0x0e, 0x00, 0x00, 0x00, 0x10, 0x00, 0x00, 0x00, 
0x14, 0x00, 0x00, 0x00, 0x14, 0x00, 0x00, 0x00, 0x12, 0x00, 0x00, 0x00, 
0x9e, 0xff, 0xff, 0xff, 0x0c, 0x00, 0x00, 0x00, 0x10, 0x00, 0x00, 0x00, 
0x05, 0x00, 0x00, 0x00, 0x01, 0x00, 0x00, 0x00, 0x14, 0x00, 0x00, 0x00, 
0x02, 0x00, 0x00, 0x00, 0x13, 0x00, 0x00, 0x00, 0x08, 0x00, 0x00, 0x00, 
0x92, 0xff, 0xff, 0xff, 0x1c, 0x00, 0x00, 0x00, 0x00, 0x00, 0x00, 0x3b, 
0x1c, 0x00, 0x00, 0x00, 0x20, 0x00, 0x00, 0x00, 0x04, 0x00, 0x00, 0x00, 
0x00, 0x00, 0x06, 0x00, 0x08, 0x00, 0x04, 0x00, 0x06, 0x00, 0x00, 0x00, 
0x02, 0x00, 0x00, 0x00, 0x01, 0x00, 0x00, 0x00, 0x13, 0x00, 0x00, 0x00, 
0x02, 0x00, 0x00, 0x00, 0x11, 0x00, 0x00, 0x00, 0x07, 0x00, 0x00, 0x00, 
0x00, 0x00, 0x0a, 0x00, 0x10, 0x00, 0x0c, 0x00, 0x08, 0x00, 0x04, 0x00, 
0x0a, 0x00, 0x00, 0x00, 0x0c, 0x00, 0x00, 0x00, 0x10, 0x00, 0x00, 0x00, 
0x03, 0x00, 0x00, 0x00, 0x01, 0x00, 0x00, 0x00, 0x12, 0x00, 0x00, 0x00, 
0x02, 0x00, 0x00, 0x00, 0x00, 0x00, 0x00, 0x00, 0x09, 0x00, 0x00, 0x00, 
0x00, 0x00, 0x0e, 0x00, 0x1a, 0x00, 0x14, 0x00, 0x10, 0x00, 0x0c, 0x00, 
0x0b, 0x00, 0x04, 0x00, 0x0e, 0x00, 0x00, 0x00, 0x24, 0x00, 0x00, 0x00, 
0x00, 0x00, 0x00, 0x20, 0x24, 0x00, 0x00, 0x00, 0x28, 0x00, 0x00, 0x00, 
0x02, 0x00, 0x00, 0x00, 0x00, 0x00, 0x0e, 0x00, 0x08, 0x00, 0x00, 0x00, 
0x00, 0x00, 0x00, 0x00, 0x00, 0x00, 0x04, 0x00, 0x0e, 0x00, 0x00, 0x00, 
0x01, 0x00, 0x00, 0x00, 0x01, 0x00, 0x00, 0x00, 0x11, 0x00, 0x00, 0x00, 
0x04, 0x00, 0x00, 0x00, 0x0f, 0x00, 0x00, 0x00, 0x0b, 0x00, 0x00, 0x00, 
0x0a, 0x00, 0x00, 0x00, 0x0a, 0x00, 0x00, 0x00, 0x10, 0x00, 0x14, 0x00, 
0x10, 0x00, 0x0c, 0x00, 0x08, 0x00, 0x00, 0x00, 0x00, 0x00, 0x04, 0x00, 
0x10, 0x00, 0x00, 0x00, 0x10, 0x00, 0x00, 0x00, 0x70, 0x00, 0x00, 0x00, 
0x74, 0x00, 0x00, 0x00, 0x01, 0x00, 0x00, 0x00, 0x5d, 0x00, 0x00, 0x00, 
0x11, 0x54, 0x65, 0x6e, 0x73, 0x6f, 0x72, 0x4c, 0x69, 0x73, 0x74, 0x52, 
0x65, 0x73, 0x65, 0x72, 0x76, 0x65, 0x00, 0x40, 0x12, 0x11, 0x54, 0x65, 
0x6e, 0x73, 0x6f, 0x72, 0x4c, 0x69, 0x73, 0x74, 0x52, 0x65, 0x73, 0x65, 
0x72, 0x76, 0x65, 0x1a, 0x00, 0x1a, 0x00, 0x2a, 0x10, 0x0a, 0x0a, 0x73, 
0x68, 0x61, 0x70, 0x65, 0x5f, 0x74, 0x79, 0x70, 0x65, 0x12, 0x02, 0x30, 
0x03, 0x2a, 0x13, 0x0a, 0x0d, 0x65, 0x6c, 0x65, 0x6d, 0x65, 0x6e, 0x74, 
0x5f, 0x64, 0x74, 0x79, 0x70, 0x65, 0x12, 0x02, 0x30, 0x01, 0x32, 0x00, 
0x00, 0x02, 0x55, 0x43, 0x14, 0x14, 0x04, 0x28, 0x01, 0x00, 0x00, 0x00, 
0x01, 0x00, 0x00, 0x00, 0x10, 0x00, 0x00, 0x00, 0x02, 0x00, 0x00, 0x00, 
0x0d, 0x00, 0x00, 0x00, 0x0c, 0x00, 0x00, 0x00, 0x00, 0x00, 0x0e, 0x00, 
0x16, 0x00, 0x00, 0x00, 0x10, 0x00, 0x0c, 0x00, 0x0b, 0x00, 0x04, 0x00, 
0x0e, 0x00, 0x00, 0x00, 0x18, 0x00, 0x00, 0x00, 0x00, 0x00, 0x00, 0x37, 
0x18, 0x00, 0x00, 0x00, 0x1c, 0x00, 0x00, 0x00, 0x00, 0x00, 0x06, 0x00, 
0x08, 0x00, 0x07, 0x00, 0x06, 0x00, 0x00, 0x00, 0x00, 0x00, 0x00, 0x02, 
0x01, 0x00, 0x00, 0x00, 0x0f, 0x00, 0x00, 0x00, 0x01, 0x00, 0x00, 0x00, 
0x00, 0x00, 0x00, 0x00, 0x01, 0x00, 0x00, 0x00, 0x1e, 0x00, 0x00, 0x00, 
0x01, 0x00, 0x00, 0x00, 0x00, 0x00, 0x00, 0x00, 0x1f, 0x00, 0x00, 0x00, 
0xdc, 0x09, 0x00, 0x00, 0x84, 0x09, 0x00, 0x00, 0x2c, 0x09, 0x00, 0x00, 
0xec, 0x08, 0x00, 0x00, 0xac, 0x08, 0x00, 0x00, 0x58, 0x08, 0x00, 0x00, 
0x1c, 0x08, 0x00, 0x00, 0xe0, 0x07, 0x00, 0x00, 0xa8, 0x07, 0x00, 0x00, 
0x68, 0x07, 0x00, 0x00, 0x28, 0x07, 0x00, 0x00, 0xe4, 0x06, 0x00, 0x00, 
0xa4, 0x06, 0x00, 0x00, 0x60, 0x06, 0x00, 0x00, 0x20, 0x06, 0x00, 0x00, 
0xd4, 0x05, 0x00, 0x00, 0x54, 0x05, 0x00, 0x00, 0xec, 0x04, 0x00, 0x00, 
0x84, 0x04, 0x00, 0x00, 0x30, 0x04, 0x00, 0x00, 0xd4, 0x03, 0x00, 0x00, 
0x8c, 0x03, 0x00, 0x00, 0x44, 0x03, 0x00, 0x00, 0xd8, 0x02, 0x00, 0x00, 
0x7c, 0x02, 0x00, 0x00, 0x20, 0x02, 0x00, 0x00, 0xbc, 0x01, 0x00, 0x00, 
0x3c, 0x01, 0x00, 0x00, 0xd8, 0x00, 0x00, 0x00, 0x60, 0x00, 0x00, 0x00, 
0x04, 0x00, 0x00, 0x00, 0xb6, 0xf6, 0xff, 0xff, 0x00, 0x00, 0x00, 0x01, 
0x14, 0x00, 0x00, 0x00, 0x1c, 0x00, 0x00, 0x00, 0x1c, 0x00, 0x00, 0x00, 
0x1f, 0x00, 0x00, 0x00, 0x34, 0x00, 0x00, 0x00, 0x02, 0x00, 0x00, 0x00, 
0xff, 0xff, 0xff, 0xff, 0x03, 0x00, 0x00, 0x00, 0xac, 0xf5, 0xff, 0xff, 
0x1b, 0x00, 0x00, 0x00, 0x53, 0x74, 0x61, 0x74, 0x65, 0x66, 0x75, 0x6c, 
0x50, 0x61, 0x72, 0x74, 0x69, 0x74, 0x69, 0x6f, 0x6e, 0x65, 0x64, 0x43, 
0x61, 0x6c, 0x6c, 0x5f, 0x31, 0x3a, 0x30, 0x00, 0x02, 0x00, 0x00, 0x00, 
0x01, 0x00, 0x00, 0x00, 0x03, 0x00, 0x00, 0x00, 0x0e, 0xf7, 0xff, 0xff, 
0x00, 0x00, 0x00, 0x01, 0x14, 0x00, 0x00, 0x00, 0x1c, 0x00, 0x00, 0x00, 
0x1c, 0x00, 0x00, 0x00, 0x1e, 0x00, 0x00, 0x00, 0x50, 0x00, 0x00, 0x00, 
0x02, 0x00, 0x00, 0x00, 0xff, 0xff, 0xff, 0xff, 0x03, 0x00, 0x00, 0x00, 
0x04, 0xf6, 0xff, 0xff, 0x34, 0x00, 0x00, 0x00, 0x73, 0x65, 0x71, 0x75, 
0x65, 0x6e, 0x74, 0x69, 0x61, 0x6c, 0x5f, 0x31, 0x2f, 0x64, 0x65, 0x6e, 
0x73, 0x65, 0x5f, 0x31, 0x2f, 0x4d, 0x61, 0x74, 0x4d, 0x75, 0x6c, 0x3b, 
0x73, 0x65, 0x71, 0x75, 0x65, 0x6e, 0x74, 0x69, 0x61, 0x6c, 0x5f, 0x31, 
0x2f, 0x64, 0x65, 0x6e, 0x73, 0x65, 0x5f, 0x31, 0x2f, 0x41, 0x64, 0x64, 
0x00, 0x00, 0x00, 0x00, 0x02, 0x00, 0x00, 0x00, 0x01, 0x00, 0x00, 0x00, 
0x03, 0x00, 0x00, 0x00, 0x82, 0xf7, 0xff, 0xff, 0x00, 0x00, 0x00, 0x01, 
0x14, 0x00, 0x00, 0x00, 0x1c, 0x00, 0x00, 0x00, 0x1c, 0x00, 0x00, 0x00, 
0x1d, 0x00, 0x00, 0x00, 0x3c, 0x00, 0x00, 0x00, 0x02, 0x00, 0x00, 0x00, 
0xff, 0xff, 0xff, 0xff, 0x08, 0x00, 0x00, 0x00, 0x78, 0xf6, 0xff, 0xff, 
0x23, 0x00, 0x00, 0x00, 0x73, 0x65, 0x71, 0x75, 0x65, 0x6e, 0x74, 0x69, 
0x61, 0x6c, 0x5f, 0x31, 0x2f, 0x6c, 0x73, 0x74, 0x6d, 0x5f, 0x31, 0x2f, 
0x73, 0x74, 0x72, 0x69, 0x64, 0x65, 0x64, 0x5f, 0x73, 0x6c, 0x69, 0x63, 
0x65, 0x5f, 0x33, 0x00, 0x02, 0x00, 0x00, 0x00, 0x01, 0x00, 0x00, 0x00, 
0x08, 0x00, 0x00, 0x00, 0xe2, 0xf7, 0xff, 0xff, 0x00, 0x00, 0x00, 0x01, 
0x14, 0x00, 0x00, 0x00, 0x20, 0x00, 0x00, 0x00, 0x20, 0x00, 0x00, 0x00, 
0x1c, 0x00, 0x00, 0x00, 0x54, 0x00, 0x00, 0x00, 0x03, 0x00, 0x00, 0x00, 
0x01, 0x00, 0x00, 0x00, 0xff, 0xff, 0xff, 0xff, 0x08, 0x00, 0x00, 0x00, 
0xdc, 0xf6, 0xff, 0xff, 0x36, 0x00, 0x00, 0x00, 0x73, 0x65, 0x71, 0x75, 
0x65, 0x6e, 0x74, 0x69, 0x61, 0x6c, 0x5f, 0x31, 0x2f, 0x6c, 0x73, 0x74, 
0x6d, 0x5f, 0x31, 0x2f, 0x54, 0x65, 0x6e, 0x73, 0x6f, 0x72, 0x41, 0x72, 
0x72, 0x61, 0x79, 0x56, 0x32, 0x53, 0x74, 0x61, 0x63, 0x6b, 0x2f, 0x54, 
0x65, 0x6e, 0x73, 0x6f, 0x72, 0x4c, 0x69, 0x73, 0x74, 0x53, 0x74, 0x61, 
0x63, 0x6b, 0x00, 0x00, 0x03, 0x00, 0x00, 0x00, 0x01, 0x00, 0x00, 0x00, 
0x01, 0x00, 0x00, 0x00, 0x08, 0x00, 0x00, 0x00, 0x5e, 0xf8, 0xff, 0xff, 
0x00, 0x00, 0x00, 0x01, 0x14, 0x00, 0x00, 0x00, 0x20, 0x00, 0x00, 0x00, 
0x20, 0x00, 0x00, 0x00, 0x1b, 0x00, 0x00, 0x00, 0x38, 0x00, 0x00, 0x00, 
0x03, 0x00, 0x00, 0x00, 0x0a, 0x00, 0x00, 0x00, 0xff, 0xff, 0xff, 0xff, 
0x06, 0x00, 0x00, 0x00, 0x58, 0xf7, 0xff, 0xff, 0x1a, 0x00, 0x00, 0x00, 
0x73, 0x65, 0x71, 0x75, 0x65, 0x6e, 0x74, 0x69, 0x61, 0x6c, 0x5f, 0x31, 
0x2f, 0x6c, 0x73, 0x74, 0x6d, 0x5f, 0x31, 0x2f, 0x77, 0x68, 0x69, 0x6c, 
0x65, 0x35, 0x00, 0x00, 0x03, 0x00, 0x00, 0x00, 0x0a, 0x00, 0x00, 0x00, 
0x01, 0x00, 0x00, 0x00, 0x06, 0x00, 0x00, 0x00, 0xbe, 0xf8, 0xff, 0xff, 
0x00, 0x00, 0x00, 0x01, 0x14, 0x00, 0x00, 0x00, 0x1c, 0x00, 0x00, 0x00, 
0x1c, 0x00, 0x00, 0x00, 0x1a, 0x00, 0x00, 0x00, 0x34, 0x00, 0x00, 0x00, 
0x02, 0x00, 0x00, 0x00, 0xff, 0xff, 0xff, 0xff, 0x08, 0x00, 0x00, 0x00, 
0xb4, 0xf7, 0xff, 0xff, 0x1a, 0x00, 0x00, 0x00, 0x73, 0x65, 0x71, 0x75, 
0x65, 0x6e, 0x74, 0x69, 0x61, 0x6c, 0x5f, 0x31, 0x2f, 0x6c, 0x73, 0x74, 
0x6d, 0x5f, 0x31, 0x2f, 0x77, 0x68, 0x69, 0x6c, 0x65, 0x34, 0x00, 0x00, 
0x02, 0x00, 0x00, 0x00, 0x01, 0x00, 0x00, 0x00, 0x08, 0x00, 0x00, 0x00, 
0x16, 0xf9, 0xff, 0xff, 0x00, 0x00, 0x00, 0x01, 0x14, 0x00, 0x00, 0x00, 
0x1c, 0x00, 0x00, 0x00, 0x1c, 0x00, 0x00, 0x00, 0x19, 0x00, 0x00, 0x00, 
0x34, 0x00, 0x00, 0x00, 0x02, 0x00, 0x00, 0x00, 0xff, 0xff, 0xff, 0xff, 
0x08, 0x00, 0x00, 0x00, 0x0c, 0xf8, 0xff, 0xff, 0x1a, 0x00, 0x00, 0x00, 
0x73, 0x65, 0x71, 0x75, 0x65, 0x6e, 0x74, 0x69, 0x61, 0x6c, 0x5f, 0x31, 
0x2f, 0x6c, 0x73, 0x74, 0x6d, 0x5f, 0x31, 0x2f, 0x77, 0x68, 0x69, 0x6c, 
0x65, 0x33, 0x00, 0x00, 0x02, 0x00, 0x00, 0x00, 0x01, 0x00, 0x00, 0x00, 
0x08, 0x00, 0x00, 0x00, 0xb8, 0xfd, 0xff, 0xff, 0x1c, 0x00, 0x00, 0x00, 
0x00, 0x00, 0x00, 0x01, 0x34, 0x00, 0x00, 0x00, 0x34, 0x00, 0x00, 0x00, 
0x18, 0x00, 0x00, 0x00, 0x00, 0x00, 0x00, 0x0e, 0x48, 0x00, 0x00, 0x00, 
0x01, 0x00, 0x00, 0x00, 0x04, 0x00, 0x00, 0x00, 0x9e, 0xfd, 0xff, 0xff, 
0x00, 0x00, 0x00, 0x01, 0x04, 0x00, 0x00, 0x00, 0x02, 0x00, 0x00, 0x00, 
0x00, 0x00, 0x00, 0x00, 0x08, 0x00, 0x00, 0x00, 0x7c, 0xf8, 0xff, 0xff, 
0x1a, 0x00, 0x00, 0x00, 0x73, 0x65, 0x71, 0x75, 0x65, 0x6e, 0x74, 0x69, 
0x61, 0x6c, 0x5f, 0x31, 0x2f, 0x6c, 0x73, 0x74, 0x6d, 0x5f, 0x31, 0x2f, 
0x77, 0x68, 0x69, 0x6c, 0x65, 0x32, 0x00, 0x00, 0x00, 0x00, 0x00, 0x00, 
0x2a, 0xfa, 0xff, 0xff, 0x00, 0x00, 0x00, 0x01, 0x14, 0x00, 0x00, 0x00, 
0x14, 0x00, 0x00, 0x00, 0x17, 0x00, 0x00, 0x00, 0x00, 0x00, 0x00, 0x02, 
0x28, 0x00, 0x00, 0x00, 0xc0, 0xf8, 0xff, 0xff, 0x1a, 0x00, 0x00, 0x00, 
0x73, 0x65, 0x71, 0x75, 0x65, 0x6e, 0x74, 0x69, 0x61, 0x6c, 0x5f, 0x31, 
0x2f, 0x6c, 0x73, 0x74, 0x6d, 0x5f, 0x31, 0x2f, 0x77, 0x68, 0x69, 0x6c, 
0x65, 0x31, 0x00, 0x00, 0x00, 0x00, 0x00, 0x00, 0x6e, 0xfa, 0xff, 0xff, 
0x00, 0x00, 0x00, 0x01, 0x14, 0x00, 0x00, 0x00, 0x14, 0x00, 0x00, 0x00, 
0x16, 0x00, 0x00, 0x00, 0x00, 0x00, 0x00, 0x02, 0x28, 0x00, 0x00, 0x00, 
0x04, 0xf9, 0xff, 0xff, 0x19, 0x00, 0x00, 0x00, 0x73, 0x65, 0x71, 0x75, 
0x65, 0x6e, 0x74, 0x69, 0x61, 0x6c, 0x5f, 0x31, 0x2f, 0x6c, 0x73, 0x74, 
0x6d, 0x5f, 0x31, 0x2f, 0x77, 0x68, 0x69, 0x6c, 0x65, 0x00, 0x00, 0x00, 
0x00, 0x00, 0x00, 0x00, 0x5e, 0xfa, 0xff, 0xff, 0x00, 0x00, 0x00, 0x01, 
0x14, 0x00, 0x00, 0x00, 0x1c, 0x00, 0x00, 0x00, 0x1c, 0x00, 0x00, 0x00, 
0x15, 0x00, 0x00, 0x00, 0x34, 0x00, 0x00, 0x00, 0x02, 0x00, 0x00, 0x00, 
0xff, 0xff, 0xff, 0xff, 0x08, 0x00, 0x00, 0x00, 0x54, 0xf9, 0xff, 0xff, 
0x19, 0x00, 0x00, 0x00, 0x73, 0x65, 0x71, 0x75, 0x65, 0x6e, 0x74, 0x69, 
0x61, 0x6c, 0x5f, 0x31, 0x2f, 0x6c, 0x73, 0x74, 0x6d, 0x5f, 0x31, 0x2f, 
0x7a, 0x65, 0x72, 0x6f, 0x73, 0x00, 0x00, 0x00, 0x02, 0x00, 0x00, 0x00, 
0x01, 0x00, 0x00, 0x00, 0x08, 0x00, 0x00, 0x00, 0x0a, 0xfb, 0xff, 0xff, 
0x00, 0x00, 0x00, 0x01, 0x14, 0x00, 0x00, 0x00, 0x14, 0x00, 0x00, 0x00, 
0x14, 0x00, 0x00, 0x00, 0x00, 0x00, 0x00, 0x02, 0x30, 0x00, 0x00, 0x00, 
0xa0, 0xf9, 0xff, 0xff, 0x20, 0x00, 0x00, 0x00, 0x73, 0x65, 0x71, 0x75, 
0x65, 0x6e, 0x74, 0x69, 0x61, 0x6c, 0x5f, 0x31, 0x2f, 0x6c, 0x73, 0x74, 
0x6d, 0x5f, 0x31, 0x2f, 0x7a, 0x65, 0x72, 0x6f, 0x73, 0x2f, 0x70, 0x61, 
0x63, 0x6b, 0x65, 0x64, 0x00, 0x00, 0x00, 0x00, 0x01, 0x00, 0x00, 0x00, 
0x02, 0x00, 0x00, 0x00, 0x06, 0xfb, 0xff, 0xff, 0x00, 0x00, 0x00, 0x01, 
0x14, 0x00, 0x00, 0x00, 0x20, 0x00, 0x00, 0x00, 0x20, 0x00, 0x00, 0x00, 
0x13, 0x00, 0x00, 0x00, 0x3c, 0x00, 0x00, 0x00, 0x03, 0x00, 0x00, 0x00, 
0x0a, 0x00, 0x00, 0x00, 0xff, 0xff, 0xff, 0xff, 0x06, 0x00, 0x00, 0x00, 
0x00, 0xfa, 0xff, 0xff, 0x1d, 0x00, 0x00, 0x00, 0x73, 0x65, 0x71, 0x75, 
0x65, 0x6e, 0x74, 0x69, 0x61, 0x6c, 0x5f, 0x31, 0x2f, 0x6c, 0x73, 0x74, 
0x6d, 0x5f, 0x31, 0x2f, 0x74, 0x72, 0x61, 0x6e, 0x73, 0x70, 0x6f, 0x73, 
0x65, 0x00, 0x00, 0x00, 0x03, 0x00, 0x00, 0x00, 0x0a, 0x00, 0x00, 0x00, 
0x01, 0x00, 0x00, 0x00, 0x06, 0x00, 0x00, 0x00, 0xbe, 0xfb, 0xff, 0xff, 
0x00, 0x00, 0x00, 0x01, 0x14, 0x00, 0x00, 0x00, 0x14, 0x00, 0x00, 0x00, 
0x12, 0x00, 0x00, 0x00, 0x00, 0x00, 0x00, 0x02, 0x30, 0x00, 0x00, 0x00, 
0x54, 0xfa, 0xff, 0xff, 0x21, 0x00, 0x00, 0x00, 0x73, 0x65, 0x71, 0x75, 
0x65, 0x6e, 0x74, 0x69, 0x61, 0x6c, 0x5f, 0x31, 0x2f, 0x6c, 0x73, 0x74, 
0x6d, 0x5f, 0x31, 0x2f, 0x73, 0x74, 0x72, 0x69, 0x64, 0x65, 0x64, 0x5f, 
0x73, 0x6c, 0x69, 0x63, 0x65, 0x00, 0x00, 0x00, 0x00, 0x00, 0x00, 0x00, 
0x18, 0x00, 0x20, 0x00, 0x1c, 0x00, 0x1b, 0x00, 0x14, 0x00, 0x10, 0x00, 
0x0c, 0x00, 0x00, 0x00, 0x00, 0x00, 0x00, 0x00, 0x0b, 0x00, 0x04, 0x00, 
0x18, 0x00, 0x00, 0x00, 0x1c, 0x00, 0x00, 0x00, 0x00, 0x00, 0x00, 0x01, 
0x40, 0x00, 0x00, 0x00, 0x40, 0x00, 0x00, 0x00, 0x11, 0x00, 0x00, 0x00, 
0x00, 0x00, 0x00, 0x0e, 0x5c, 0x00, 0x00, 0x00, 0x01, 0x00, 0x00, 0x00, 
0x10, 0x00, 0x00, 0x00, 0x00, 0x00, 0x0a, 0x00, 0x0c, 0x00, 0x08, 0x00, 
0x00, 0x00, 0x07, 0x00, 0x0a, 0x00, 0x00, 0x00, 0x00, 0x00, 0x00, 0x01, 
0x04, 0x00, 0x00, 0x00, 0x02, 0x00, 0x00, 0x00, 0x00, 0x00, 0x00, 0x00, 
0x08, 0x00, 0x00, 0x00, 0xe8, 0xfa, 0xff, 0xff, 0x23, 0x00, 0x00, 0x00, 
0x73, 0x65, 0x71, 0x75, 0x65, 0x6e, 0x74, 0x69, 0x61, 0x6c, 0x5f, 0x31, 
0x2f, 0x6c, 0x73, 0x74, 0x6d, 0x5f, 0x31, 0x2f, 0x54, 0x65, 0x6e, 0x73, 
0x6f, 0x72, 0x41, 0x72, 0x72, 0x61, 0x79, 0x56, 0x32, 0x5f, 0x31, 0x00, 
0x00, 0x00, 0x00, 0x00, 0x9e, 0xfc, 0xff, 0xff, 0x00, 0x00, 0x00, 0x01, 
0x14, 0x00, 0x00, 0x00, 0x14, 0x00, 0x00, 0x00, 0x10, 0x00, 0x00, 0x00, 
0x00, 0x00, 0x00, 0x02, 0x28, 0x00, 0x00, 0x00, 0x34, 0xfb, 0xff, 0xff, 
0x19, 0x00, 0x00, 0x00, 0x73, 0x65, 0x71, 0x75, 0x65, 0x6e, 0x74, 0x69, 
0x61, 0x6c, 0x5f, 0x31, 0x2f, 0x6c, 0x73, 0x74, 0x6d, 0x5f, 0x31, 0x2f, 
0x53, 0x68, 0x61, 0x70, 0x65, 0x00, 0x00, 0x00, 0x01, 0x00, 0x00, 0x00, 
0x03, 0x00, 0x00, 0x00, 0xe6, 0xfc, 0xff, 0xff, 0x00, 0x00, 0x00, 0x01, 
0x14, 0x00, 0x00, 0x00, 0x14, 0x00, 0x00, 0x00, 0x09, 0x00, 0x00, 0x00, 
0x00, 0x00, 0x00, 0x02, 0x20, 0x00, 0x00, 0x00, 0x7c, 0xfb, 0xff, 0xff, 
0x10, 0x00, 0x00, 0x00, 0x61, 0x72, 0x69, 0x74, 0x68, 0x2e, 0x63, 0x6f, 
0x6e, 0x73, 0x74, 0x61, 0x6e, 0x74, 0x31, 0x33, 0x00, 0x00, 0x00, 0x00, 
0x00, 0x00, 0x00, 0x00, 0x22, 0xfd, 0xff, 0xff, 0x00, 0x00, 0x00, 0x01, 
0x14, 0x00, 0x00, 0x00, 0x14, 0x00, 0x00, 0x00, 0x0e, 0x00, 0x00, 0x00, 
0x00, 0x00, 0x00, 0x02, 0x20, 0x00, 0x00, 0x00, 0xb8, 0xfb, 0xff, 0xff, 
0x10, 0x00, 0x00, 0x00, 0x61, 0x72, 0x69, 0x74, 0x68, 0x2e, 0x63, 0x6f, 
0x6e, 0x73, 0x74, 0x61, 0x6e, 0x74, 0x31, 0x32, 0x00, 0x00, 0x00, 0x00, 
0x01, 0x00, 0x00, 0x00, 0x02, 0x00, 0x00, 0x00, 0x62, 0xfd, 0xff, 0xff, 
0x00, 0x00, 0x00, 0x01, 0x14, 0x00, 0x00, 0x00, 0x14, 0x00, 0x00, 0x00, 
0x0b, 0x00, 0x00, 0x00, 0x00, 0x00, 0x00, 0x02, 0x20, 0x00, 0x00, 0x00, 
0xf8, 0xfb, 0xff, 0xff, 0x10, 0x00, 0x00, 0x00, 0x61, 0x72, 0x69, 0x74, 
0x68, 0x2e, 0x63, 0x6f, 0x6e, 0x73, 0x74, 0x61, 0x6e, 0x74, 0x31, 0x31, 
0x00, 0x00, 0x00, 0x00, 0x00, 0x00, 0x00, 0x00, 0x9e, 0xfd, 0xff, 0xff, 
0x00, 0x00, 0x00, 0x01, 0x14, 0x00, 0x00, 0x00, 0x14, 0x00, 0x00, 0x00, 
0x09, 0x00, 0x00, 0x00, 0x00, 0x00, 0x00, 0x02, 0x20, 0x00, 0x00, 0x00, 
0x34, 0xfc, 0xff, 0xff, 0x10, 0x00, 0x00, 0x00, 0x61, 0x72, 0x69, 0x74, 
0x68, 0x2e, 0x63, 0x6f, 0x6e, 0x73, 0x74, 0x61, 0x6e, 0x74, 0x31, 0x30, 
0x00, 0x00, 0x00, 0x00, 0x01, 0x00, 0x00, 0x00, 0x01, 0x00, 0x00, 0x00, 
0xde, 0xfd, 0xff, 0xff, 0x00, 0x00, 0x00, 0x01, 0x14, 0x00, 0x00, 0x00, 
0x14, 0x00, 0x00, 0x00, 0x0b, 0x00, 0x00, 0x00, 0x00, 0x00, 0x00, 0x02, 
0x1c, 0x00, 0x00, 0x00, 0x74, 0xfc, 0xff, 0xff, 0x0f, 0x00, 0x00, 0x00, 
0x61, 0x72, 0x69, 0x74, 0x68, 0x2e, 0x63, 0x6f, 0x6e, 0x73, 0x74, 0x61, 
0x6e, 0x74, 0x39, 0x00, 0x01, 0x00, 0x00, 0x00, 0x01, 0x00, 0x00, 0x00, 
0x1a, 0xfe, 0xff, 0xff, 0x00, 0x00, 0x00, 0x01, 0x14, 0x00, 0x00, 0x00, 
0x14, 0x00, 0x00, 0x00, 0x0a, 0x00, 0x00, 0x00, 0x00, 0x00, 0x00, 0x02, 
0x1c, 0x00, 0x00, 0x00, 0xb0, 0xfc, 0xff, 0xff, 0x0f, 0x00, 0x00, 0x00, 
0x61, 0x72, 0x69, 0x74, 0x68, 0x2e, 0x63, 0x6f, 0x6e, 0x73, 0x74, 0x61, 
0x6e, 0x74, 0x38, 0x00, 0x01, 0x00, 0x00, 0x00, 0x03, 0x00, 0x00, 0x00, 
0x22, 0xff, 0xff, 0xff, 0x00, 0x00, 0x00, 0x01, 0x10, 0x00, 0x00, 0x00, 
0x10, 0x00, 0x00, 0x00, 0x09, 0x00, 0x00, 0x00, 0x1c, 0x00, 0x00, 0x00, 
0xe8, 0xfc, 0xff, 0xff, 0x0f, 0x00, 0x00, 0x00, 0x61, 0x72, 0x69, 0x74, 
0x68, 0x2e, 0x63, 0x6f, 0x6e, 0x73, 0x74, 0x61, 0x6e, 0x74, 0x37, 0x00, 
0x00, 0x00, 0x00, 0x00, 0x8a, 0xfe, 0xff, 0xff, 0x00, 0x00, 0x00, 0x01, 
0x14, 0x00, 0x00, 0x00, 0x14, 0x00, 0x00, 0x00, 0x08, 0x00, 0x00, 0x00, 
0x00, 0x00, 0x00, 0x02, 0x1c, 0x00, 0x00, 0x00, 0x20, 0xfd, 0xff, 0xff, 
0x0f, 0x00, 0x00, 0x00, 0x61, 0x72, 0x69, 0x74, 0x68, 0x2e, 0x63, 0x6f, 
0x6e, 0x73, 0x74, 0x61, 0x6e, 0x74, 0x36, 0x00, 0x00, 0x00, 0x00, 0x00, 
0xc2, 0xfe, 0xff, 0xff, 0x00, 0x00, 0x00, 0x01, 0x14, 0x00, 0x00, 0x00, 
0x14, 0x00, 0x00, 0x00, 0x07, 0x00, 0x00, 0x00, 0x00, 0x00, 0x00, 0x02, 
0x1c, 0x00, 0x00, 0x00, 0x58, 0xfd, 0xff, 0xff, 0x0f, 0x00, 0x00, 0x00, 
0x61, 0x72, 0x69, 0x74, 0x68, 0x2e, 0x63, 0x6f, 0x6e, 0x73, 0x74, 0x61, 
0x6e, 0x74, 0x35, 0x00, 0x00, 0x00, 0x00, 0x00, 0xc6, 0xff, 0xff, 0xff, 
0x00, 0x00, 0x00, 0x01, 0x10, 0x00, 0x00, 0x00, 0x10, 0x00, 0x00, 0x00, 
0x06, 0x00, 0x00, 0x00, 0x1c, 0x00, 0x00, 0x00, 0x8c, 0xfd, 0xff, 0xff, 
0x0f, 0x00, 0x00, 0x00, 0x61, 0x72, 0x69, 0x74, 0x68, 0x2e, 0x63, 0x6f, 
0x6e, 0x73, 0x74, 0x61, 0x6e, 0x74, 0x34, 0x00, 0x01, 0x00, 0x00, 0x00, 
0x03, 0x00, 0x00, 0x00, 0x00, 0x00, 0x16, 0x00, 0x18, 0x00, 0x14, 0x00, 
0x00, 0x00, 0x10, 0x00, 0x0c, 0x00, 0x08, 0x00, 0x00, 0x00, 0x00, 0x00, 
0x00, 0x00, 0x07, 0x00, 0x16, 0x00, 0x00, 0x00, 0x00, 0x00, 0x00, 0x01, 
0x10, 0x00, 0x00, 0x00, 0x10, 0x00, 0x00, 0x00, 0x05, 0x00, 0x00, 0x00, 
0x1c, 0x00, 0x00, 0x00, 0xdc, 0xfd, 0xff, 0xff, 0x0f, 0x00, 0x00, 0x00, 
0x61, 0x72, 0x69, 0x74, 0x68, 0x2e, 0x63, 0x6f, 0x6e, 0x73, 0x74, 0x61, 
0x6e, 0x74, 0x33, 0x00, 0x02, 0x00, 0x00, 0x00, 0x03, 0x00, 0x00, 0x00, 
0x08, 0x00, 0x00, 0x00, 0x86, 0xff, 0xff, 0xff, 0x00, 0x00, 0x00, 0x01, 
0x14, 0x00, 0x00, 0x00, 0x14, 0x00, 0x00, 0x00, 0x04, 0x00, 0x00, 0x00, 
0x00, 0x00, 0x00, 0x02, 0x1c, 0x00, 0x00, 0x00, 0x1c, 0xfe, 0xff, 0xff, 
0x0f, 0x00, 0x00, 0x00, 0x61, 0x72, 0x69, 0x74, 0x68, 0x2e, 0x63, 0x6f, 
0x6e, 0x73, 0x74, 0x61, 0x6e, 0x74, 0x32, 0x00, 0x01, 0x00, 0x00, 0x00, 
0x03, 0x00, 0x00, 0x00, 0xc2, 0xff, 0xff, 0xff, 0x00, 0x00, 0x00, 0x01, 
0x14, 0x00, 0x00, 0x00, 0x14, 0x00, 0x00, 0x00, 0x03, 0x00, 0x00, 0x00, 
0x00, 0x00, 0x00, 0x02, 0x1c, 0x00, 0x00, 0x00, 0x58, 0xfe, 0xff, 0xff, 
0x0f, 0x00, 0x00, 0x00, 0x61, 0x72, 0x69, 0x74, 0x68, 0x2e, 0x63, 0x6f, 
0x6e, 0x73, 0x74, 0x61, 0x6e, 0x74, 0x31, 0x00, 0x01, 0x00, 0x00, 0x00, 
0x03, 0x00, 0x00, 0x00, 0x00, 0x00, 0x16, 0x00, 0x1c, 0x00, 0x18, 0x00, 
0x17, 0x00, 0x10, 0x00, 0x0c, 0x00, 0x08, 0x00, 0x00, 0x00, 0x00, 0x00, 
0x00, 0x00, 0x07, 0x00, 0x16, 0x00, 0x00, 0x00, 0x00, 0x00, 0x00, 0x01, 
0x14, 0x00, 0x00, 0x00, 0x14, 0x00, 0x00, 0x00, 0x02, 0x00, 0x00, 0x00, 
0x00, 0x00, 0x00, 0x02, 0x1c, 0x00, 0x00, 0x00, 0xac, 0xfe, 0xff, 0xff, 
0x0e, 0x00, 0x00, 0x00, 0x61, 0x72, 0x69, 0x74, 0x68, 0x2e, 0x63, 0x6f, 
0x6e, 0x73, 0x74, 0x61, 0x6e, 0x74, 0x00, 0x00, 0x01, 0x00, 0x00, 0x00, 
0x03, 0x00, 0x00, 0x00, 0x00, 0x00, 0x16, 0x00, 0x1c, 0x00, 0x18, 0x00, 
0x00, 0x00, 0x14, 0x00, 0x10, 0x00, 0x0c, 0x00, 0x00, 0x00, 0x00, 0x00, 
0x08, 0x00, 0x07, 0x00, 0x16, 0x00, 0x00, 0x00, 0x00, 0x00, 0x00, 0x01, 
0x14, 0x00, 0x00, 0x00, 0x20, 0x00, 0x00, 0x00, 0x20, 0x00, 0x00, 0x00, 
0x01, 0x00, 0x00, 0x00, 0x3c, 0x00, 0x00, 0x00, 0x03, 0x00, 0x00, 0x00, 
0xff, 0xff, 0xff, 0xff, 0x0a, 0x00, 0x00, 0x00, 0x06, 0x00, 0x00, 0x00, 
0x10, 0xff, 0xff, 0xff, 0x1e, 0x00, 0x00, 0x00, 0x73, 0x65, 0x72, 0x76, 
0x69, 0x6e, 0x67, 0x5f, 0x64, 0x65, 0x66, 0x61, 0x75, 0x6c, 0x74, 0x5f, 
0x6b, 0x65, 0x72, 0x61, 0x73, 0x5f, 0x74, 0x65, 0x6e, 0x73, 0x6f, 0x72, 
0x3a, 0x30, 0x00, 0x00, 0x03, 0x00, 0x00, 0x00, 0x01, 0x00, 0x00, 0x00, 
0x0a, 0x00, 0x00, 0x00, 0x06, 0x00, 0x00, 0x00, 0x13, 0x00, 0x00, 0x00, 
0x94, 0x01, 0x00, 0x00, 0x58, 0x01, 0x00, 0x00, 0x3c, 0x01, 0x00, 0x00, 
0x2c, 0x01, 0x00, 0x00, 0x1c, 0x01, 0x00, 0x00, 0x0c, 0x01, 0x00, 0x00, 
0xfc, 0x00, 0x00, 0x00, 0xd0, 0x00, 0x00, 0x00, 0xc0, 0x00, 0x00, 0x00, 
0xb0, 0x00, 0x00, 0x00, 0xa0, 0x00, 0x00, 0x00, 0x90, 0x00, 0x00, 0x00, 
0x88, 0x00, 0x00, 0x00, 0x74, 0x00, 0x00, 0x00, 0x64, 0x00, 0x00, 0x00, 
0x54, 0x00, 0x00, 0x00, 0x44, 0x00, 0x00, 0x00, 0x34, 0x00, 0x00, 0x00, 
0x04, 0x00, 0x00, 0x00, 0xfc, 0xfe, 0xff, 0xff, 0x20, 0x00, 0x00, 0x00, 
0x08, 0x00, 0x00, 0x00, 0x00, 0x00, 0x00, 0x20, 0x15, 0x00, 0x00, 0x00, 
0x46, 0x6c, 0x65, 0x78, 0x54, 0x65, 0x6e, 0x73, 0x6f, 0x72, 0x4c, 0x69, 
0x73, 0x74, 0x53, 0x65, 0x74, 0x49, 0x74, 0x65, 0x6d, 0x00, 0x00, 0x00, 
0xf0, 0xfe, 0xff, 0xff, 0x1c, 0x00, 0x00, 0x00, 0x00, 0x00, 0x00, 0x1c, 
0xfc, 0xfe, 0xff, 0xff, 0x12, 0x00, 0x00, 0x00, 0x00, 0x00, 0x00, 0x12, 
0x08, 0xff, 0xff, 0xff, 0x0e, 0x00, 0x00, 0x00, 0x00, 0x00, 0x00, 0x0e, 
0x14, 0xff, 0xff, 0xff, 0x31, 0x00, 0x00, 0x00, 0x00, 0x00, 0x00, 0x31, 
0x20, 0xff, 0xff, 0xff, 0x24, 0x00, 0x00, 0x00, 0x00, 0x00, 0x00, 0x24, 
0x04, 0x00, 0x04, 0x00, 0x04, 0x00, 0x00, 0x00, 0x34, 0xff, 0xff, 0xff, 
0x56, 0x00, 0x00, 0x00, 0x00, 0x00, 0x00, 0x56, 0x40, 0xff, 0xff, 0xff, 
0x3a, 0x00, 0x00, 0x00, 0x00, 0x00, 0x00, 0x3a, 0x4c, 0xff, 0xff, 0xff, 
0x19, 0x00, 0x00, 0x00, 0x00, 0x00, 0x00, 0x19, 0x58, 0xff, 0xff, 0xff, 
0x09, 0x00, 0x00, 0x00, 0x00, 0x00, 0x00, 0x09, 0x9c, 0xff, 0xff, 0xff, 
0x20, 0x00, 0x00, 0x00, 0x08, 0x00, 0x00, 0x00, 0x00, 0x00, 0x00, 0x20, 
0x13, 0x00, 0x00, 0x00, 0x46, 0x6c, 0x65, 0x78, 0x54, 0x65, 0x6e, 0x73, 
0x6f, 0x72, 0x4c, 0x69, 0x73, 0x74, 0x53, 0x74, 0x61, 0x63, 0x6b, 0x00, 
0x8c, 0xff, 0xff, 0xff, 0x77, 0x00, 0x00, 0x00, 0x00, 0x00, 0x00, 0x77, 
0x98, 0xff, 0xff, 0xff, 0x5e, 0x00, 0x00, 0x00, 0x00, 0x00, 0x00, 0x5e, 
0xa4, 0xff, 0xff, 0xff, 0x53, 0x00, 0x00, 0x00, 0x00, 0x00, 0x00, 0x53, 
0xb0, 0xff, 0xff, 0xff, 0x27, 0x00, 0x00, 0x00, 0x00, 0x00, 0x00, 0x27, 
0xbc, 0xff, 0xff, 0xff, 0x2d, 0x00, 0x00, 0x00, 0x00, 0x00, 0x00, 0x2d, 
0x0c, 0x00, 0x10, 0x00, 0x0f, 0x00, 0x08, 0x00, 0x00, 0x00, 0x04, 0x00, 
0x0c, 0x00, 0x00, 0x00, 0x20, 0x00, 0x00, 0x00, 0x08, 0x00, 0x00, 0x00, 
0x00, 0x00, 0x00, 0x20, 0x15, 0x00, 0x00, 0x00, 0x46, 0x6c, 0x65, 0x78, 
0x54, 0x65, 0x6e, 0x73, 0x6f, 0x72, 0x4c, 0x69, 0x73, 0x74, 0x52, 0x65, 
0x73, 0x65, 0x72, 0x76, 0x65, 0x00, 0x00, 0x00, 0x0c, 0x00, 0x0c, 0x00, 
0x0b, 0x00, 0x00, 0x00, 0x00, 0x00, 0x04, 0x00, 0x0c, 0x00, 0x00, 0x00, 
0x4d, 0x00, 0x00, 0x00, 0x00, 0x00, 0x00, 0x4d, 
};

unsigned int model_tflite_len = 12548;


unsigned char* get_model_data() {
  return (unsigned char*)model_tflite_len;
}